<unk>	0
<pad>	0
<s>	0
</s>	0
▁我	-0
..	-1
▁你	-2
我们	-3
什么	-4
▁他	-5
知道	-6
一个	-7
...	-8
▁我们	-9
他们	-10
▁但	-11
如果	-12
不是	-13
没有	-14
可以	-15
因为	-16
▁在	-17
你的	-18
▁她	-19
▁好	-20
我的	-21
这个	-22
▁如果	-23
▁不	-24
自己	-25
可能	-26
现在	-27
怎么	-28
▁是	-29
▁当	-30
已经	-31
你们	-32
时候	-33
这样	-34
就是	-35
的人	-36
觉得	-37
告诉	-38
....	-39
▁因为	-40
需要	-41
这些	-42
不会	-43
所以	-44
▁一	-45
不能	-46
他的	-47
为什么	-48
公司	-49
只是	-50
工作	-51
▁别	-52
问题	-53
▁但是	-54
00	-55
▁我不	-56
孩子	-57
所有	-58
喜欢	-59
到了	-60
这里	-61
美国	-62
这么	-63
应该	-64
认为	-65
开始	-66
▁有	-67
时间	-68
中国	-69
起来	-70
的时候	-71
东西	-72
▁对	-73
▁所以	-74
▁他们	-75
那个	-76
的事	-77
的一	-78
▁把	-79
这是	-80
真的	-81
▁好吧	-82
一样	-83
一起	-84
先生	-85
还是	-86
那些	-87
好的	-88
一些	-89
希望	-90
朋友	-91
是个	-92
发现	-93
的话	-94
为了	-95
世界	-96
的是	-97
▁就	-98
那么	-99
一下	-100
研究	-101
其他	-102
今天	-103
我不	-104
人的	-105
▁这	-106
▁我是	-107
地方	-108
▁很	-109
政府	-110
还有	-111
电话	-112
▁我想	-113
任何	-114
提供	-115
......	-116
来的	-117
看到	-118
但是	-119
经济	-120
国家	-121
准备	-122
发生	-123
▁它	-124
▁你们	-125
一直	-126
相信	-127
▁当然	-128
▁你知道	-129
一次	-130
在这	-131
给你	-132
生活	-133
给我	-134
大的	-135
我们的	-136
▁我知道	-137
进行	-138
必须	-139
都是	-140
▁我要	-141
▁如果你	-142
让我	-143
非常	-144
▁听	-145
这种	-146
出来	-147
或者	-148
▁哦	-149
了一	-150
两个	-151
自己的	-152
▁-	-153
我想	-154
▁从	-155
离开	-156
我是	-157
很多	-158
妈妈	-159
她的	-160
▁我觉得	-161
▁为什么	-162
之前	-163
重要	-164
上的	-165
找到	-166
一点	-167
以为	-168
一定	-169
▁嘿	-170
意思	-171
以及	-172
▁是的	-173
也不	-174
来了	-175
好了	-176
只有	-177
▁嗯	-178
我会	-179
正在	-180
它们	-181
通过	-182
▁你的	-183
▁不过	-184
感觉	-185
市场	-186
计划	-187
想要	-188
然后	-189
明白	-190
人们	-191
成为	-192
关系	-193
看看	-194
20	-195
部分	-196
下来	-197
。-	-198
那里	-199
不要	-200
如何	-201
我要	-202
情况	-203
你是	-204
中的	-205
他们的	-206
▁我的	-207
过去	-208
一种	-209
最后	-210
来说	-211
我就	-212
我说	-213
而且	-214
那样	-215
了吗	-216
影响	-217
▁每	-218
安全	-219
银行	-220
让你	-221
使用	-222
出去	-223
不知道	-224
好吗	-225
er	-226
服务	-227
也是	-228
▁我在	-229
担心	-230
抱歉	-231
酒店	-232
▁上	-233
不过	-234
包括	-235
得到	-236
这一	-237
个人	-238
▁可	-239
作为	-240
斯特	-241
有点	-242
以前	-243
就会	-244
之后	-245
完全	-246
10	-247
在这里	-248
不同	-249
帮助	-250
告诉我	-251
有人	-252
投资	-253
选择	-254
▁噢	-255
决定	-256
发展	-257
系统	-258
事情	-259
小时	-260
▁去	-261
医生	-262
无法	-263
不想	-264
女人	-265
关于	-266
回来	-267
▁什么	-268
新的	-269
你说	-270
▁我可以	-271
伙计	-272
许多	-273
200	-274
表示	-275
技术	-276
大学	-277
也许	-278
继续	-279
肯定	-280
同时	-281
an	-282
你在	-283
▁你要	-284
去了	-285
如此	-286
我在	-287
▁是啊	-288
▁好的	-289
美元	-290
很好	-291
▁不是	-292
父亲	-293
企业	-294
▁你在	-295
社会	-296
是在	-297
19	-298
告诉你	-299
你知道	-300
▁我不知道	-301
做的	-302
方面	-303
更多	-304
是的	-305
中心	-306
几个	-307
▁快	-308
我知道	-309
能够	-310
管理	-311
”。	-312
之间	-313
认识	-314
▁现在	-315
电视	-316
儿子	-317
方式	-318
机会	-319
接受	-320
▁听着	-321
走了	-322
谢谢	-323
不错	-324
了解	-325
in	-326
是我	-327
▁呃	-328
组织	-329
这样的	-330
高兴	-331
主义	-332
结果	-333
今晚	-334
英国	-335
不到	-336
过来	-337
▁但我	-338
▁啊	-339
出现	-340
信息	-341
是什么	-342
▁你不	-343
有一	-344
总是	-345
爸爸	-346
调查	-347
死了	-348
要求	-349
▁我只	-350
分析	-351
▁怎么	-352
大家	-353
▁你想	-354
学校	-355
方法	-356
一切	-357
控制	-358
警察	-359
on	-360
甚至	-361
因此	-362
女孩	-363
分钟	-364
出了	-365
▁他的	-366
记得	-367
爱的	-368
改变	-369
注意	-370
的地方	-371
?-	-372
你会	-373
你不	-374
支持	-375
保护	-376
名字	-377
你要	-378
▁今天	-379
所有的	-380
做了	-381
怎样	-382
是一个	-383
总统	-384
清楚	-385
存在	-386
地区	-387
尽管	-388
看见	-389
处理	-390
第一	-391
看起来	-392
原因	-393
说的	-394
成功	-395
▁再	-396
男人	-397
ar	-398
就像	-399
了我	-400
▁你得	-401
上去	-402
当然	-403
▁我有	-404
哪里	-405
整个	-406
城市	-407
唯一	-408
多少	-409
的东西	-410
回家	-411
▁我可	-412
在一起	-413
并不	-414
活动	-415
的事情	-416
有什么	-417
科学	-418
怎么样	-419
一个人	-420
解决	-421
等等	-422
设计	-423
或许	-424
不了	-425
房间	-426
主要	-427
都会	-428
国际	-429
▁我很	-430
政治	-431
感到	-432
明天	-433
行为	-434
▁天	-435
▁只是	-436
并且	-437
实际	-438
获得	-439
是一	-440
家庭	-441
日本	-442
我也	-443
晚上	-444
家伙	-445
参加	-446
可能会	-447
行动	-448
别人	-449
都不	-450
成了	-451
有些	-452
里的	-453
▁我是说	-454
▁最	-455
▁为了	-456
件事	-457
好吧	-458
结束	-459
不起	-460
交易	-461
愿意	-462
星期	-463
真是	-464
▁我也	-465
电影	-466
努力	-467
这儿	-468
在那	-469
咖啡	-470
听到	-471
能力	-472
欧洲	-473
对于	-474
确定	-475
▁我去	-476
是否	-477
▁太	-478
全球	-479
有个	-480
其中	-481
的大	-482
人员	-483
之一	-484
你就	-485
过了	-486
学生	-487
自由	-488
几乎	-489
消息	-490
▁她的	-491
兄弟	-492
来自	-493
我很	-494
杀了	-495
考虑	-496
▁我刚	-497
▁像	-498
以后	-499
根本	-500
产品	-501
进入	-502
拥有	-503
增长	-504
免费	-505
和你	-506
说了	-507
好像	-508
数据	-509
▁因为我	-510
特别	-511
▁我就	-512
报告	-513
▁为	-514
那是	-515
打电话	-516
运动	-517
没事	-518
真正	-519
即使	-520
房子	-521
目前	-522
年的	-523
▁我们的	-524
。”	-525
性的	-526
比赛	-527
▁你说	-528
英里	-529
历史	-530
在这儿	-531
哪儿	-532
你能	-533
保证	-534
容易	-535
年轻	-536
衣服	-537
女儿	-538
▁我把	-539
你想	-540
汽车	-541
▁我来	-542
当时	-543
表现	-544
帮我	-545
环境	-546
▁想	-547
似乎	-548
让他	-549
令人	-550
办公	-551
和我	-552
由于	-553
变得	-554
解释	-555
的小	-556
▁嗨	-557
重新	-558
▁会	-559
12	-560
目标	-561
机构	-562
事实	-563
办法	-564
▁就像	-565
▁他说	-566
是你	-567
保持	-568
有关	-569
政策	-570
en	-571
永远	-572
马上	-573
证明	-574
利用	-575
生命	-576
宝贝	-577
法律	-578
了一个	-579
孩子们	-580
只要	-581
受到	-582
在我	-583
她们	-584
见过	-585
动物	-586
第二	-587
故事	-588
才能	-589
▁你还	-590
给他	-591
他是	-592
里面	-593
al	-594
上帝	-595
生产	-596
联系	-597
做什么	-598
的问题	-599
个月	-600
早上	-601
or	-602
将会	-603
危险	-604
多数	-605
然而	-606
照片	-607
▁无	-608
母亲	-609
身上	-610
漂亮	-611
11	-612
价格	-613
产生	-614
作用	-615
女士	-616
从来	-617
我能	-618
都在	-619
▁我们要	-620
妻子	-621
▁那	-622
▁以	-623
音乐	-624
制造	-625
回去	-626
建议	-627
▁你觉得	-628
教育	-629
显示	-630
年前	-631
严重	-632
同样	-633
游戏	-634
项目	-635
麻烦	-636
对我	-637
帮你	-638
直接	-639
50	-640
▁当我	-641
导致	-642
网络	-643
回到	-644
简单	-645
至少	-646
▁他是	-647
最近	-648
可能是	-649
检查	-650
精神	-651
其实	-652
仍然	-653
文化	-654
你有	-655
印度	-656
金融	-657
▁我不想	-658
价值	-659
拜托	-660
干嘛	-661
出的	-662
它的	-663
对吧	-664
过程	-665
:“	-666
到底	-667
见到	-668
他在	-669
▁你能	-670
领导	-671
上了	-672
确实	-673
虽然	-674
会议	-675
不可	-676
不好	-677
理解	-678
律师	-679
负责	-680
▁他在	-681
人类	-682
说话	-683
看着	-684
30	-685
飞机	-686
增加	-687
都有	-688
治疗	-689
你了	-690
我有	-691
很有	-692
父母	-693
实际上	-694
”,	-695
下去	-696
合作	-697
艺术	-698
咱们	-699
医院	-700
自然	-701
▁我能	-702
新闻	-703
▁你就	-704
es	-705
承认	-706
结婚	-707
代表	-708
让我们	-709
亲爱的	-710
▁我不是	-711
丈夫	-712
意味	-713
办公室	-714
你可以	-715
打算	-716
突然	-717
尤其	-718
手机	-719
另外	-720
妈的	-721
学习	-722
跟我	-723
曾经	-724
把它	-725
▁我没	-726
下的	-727
任务	-728
我还	-729
完成	-730
那种	-731
15	-732
而已	-733
干什么	-734
同意	-735
健康	-736
▁大	-737
不得	-738
人都	-739
纽约	-740
进去	-741
不在	-742
世纪	-743
建立	-744
你们的	-745
是不是	-746
战争	-747
根据	-748
▁它们	-749
是谁	-750
一位	-751
证据	-752
危机	-753
▁所有	-754
意义	-755
身体	-756
具有	-757
害怕	-758
把他	-759
听说	-760
了吧	-761
会有	-762
的一个	-763
▁她说	-764
了你	-765
变成	-766
传统	-767
实验	-768
意识	-769
ch	-770
利亚	-771
今年	-772
文件	-773
经常	-774
死亡	-775
通常	-776
罗斯	-777
反对	-778
把我	-779
你还	-780
记录	-781
者的	-782
意味着	-783
刚刚	-784
这次	-785
学家	-786
风险	-787
把你	-788
明显	-789
我们要	-790
▁尽管	-791
我可以	-792
反应	-793
客房	-794
放在	-795
声音	-796
公路	-797
比如	-798
竞争	-799
早餐	-800
▁这些	-801
是因为	-802
只能	-803
一家	-804
▁或者	-805
仅仅	-806
变化	-807
保险	-808
的时间	-809
▁与	-810
附近	-811
兴趣	-812
其它	-813
公司的	-814
it	-815
人民	-816
我没	-817
都没	-818
▁两	-819
造成	-820
三个	-821
就能	-822
德国	-823
食物	-824
经历	-825
可是	-826
基金	-827
一步	-828
▁然而	-829
未来	-830
电脑	-831
消费	-832
紧张	-833
▁你看	-834
▁我以为	-835
斯坦	-836
了什么	-837
的最	-838
位于	-839
比较	-840
le	-841
多了	-842
有一个	-843
讨论	-844
更加	-845
就在	-846
),	-847
说什么	-848
法国	-849
随着	-850
开心	-851
奇怪	-852
眼睛	-853
感谢	-854
▁而	-855
谈谈	-856
应用	-857
错误	-858
▁又	-859
我觉得	-860
以来	-861
刚才	-862
▁因此	-863
。。	-864
部门	-865
不用	-866
也会	-867
这么做	-868
力的	-869
想法	-870
生物	-871
▁据	-872
拒绝	-873
▁我说	-874
范围	-875
另一	-876
▁这个	-877
了他	-878
必要	-879
▁抱歉	-880
如果你	-881
欢迎	-882
理论	-883
伤害	-884
秘密	-885
而不是	-886
目的	-887
越来	-888
手术	-889
提高	-890
▁对于	-891
,“	-892
试图	-893
越来越	-894
相关	-895
很快	-896
--	-897
对你	-898
▁如果我	-899
建筑	-900
放弃	-901
▁等等	-902
商业	-903
很难	-904
家人	-905
最终	-906
允许	-907
正常	-908
标准	-909
▁你好	-910
▁距	-911
联合	-912
▁我只是	-913
▁你知道吗	-914
跟你	-915
面的	-916
▁好了	-917
▁做	-918
▁但你	-919
第一次	-920
到的	-921
各种	-922
一天	-923
就要	-924
死的	-925
报道	-926
每天	-927
讨厌	-928
客户	-929
at	-930
武器	-931
▁我不能	-932
我不知道	-933
行的	-934
▁在我	-935
出口	-936
子里	-937
除了	-938
另一个	-939
创造	-940
地球	-941
和他	-942
约会	-943
▁这是	-944
ro	-945
事件	-946
st	-947
带来	-948
还在	-949
好好	-950
进来	-951
压力	-952
我只是	-953
没什么	-954
现代	-955
委员	-956
定的	-957
▁不管	-958
el	-959
最好	-960
没人	-961
享受	-962
位置	-963
我去	-964
用的	-965
▁准备	-966
失去	-967
看上去	-968
子的	-969
▁哪	-970
全部	-971
让人	-972
不断	-973
更多的	-974
吸引	-975
威胁	-976
最好的	-977
重要的	-978
色的	-979
多的	-980
电子	-981
资金	-982
基本	-983
▁可能	-984
100	-985
开发	-986
没错	-987
程序	-988
他会	-989
基础	-990
家里	-991
玩笑	-992
看来	-993
那儿	-994
量的	-995
▁我们会	-996
实现	-997
不可能	-998
尸体	-999
▁有人	-1000
安排	-1001
执行	-1002
在你	-1003
▁希望	-1004
回事	-1005
▁当时	-1006
设施	-1007
别的	-1008
设备	-1009
女性	-1010
媒体	-1011
高速	-1012
民主	-1013
过的	-1014
忘了	-1015
我来	-1016
是吗	-1017
我们会	-1018
员工	-1019
什么时候	-1020
▁我已经	-1021
昨天	-1022
我得	-1023
并不是	-1024
留下	-1025
空间	-1026
▁一个	-1027
巴马	-1028
成员	-1029
打开	-1030
▁“	-1031
后来	-1032
快点	-1033
计算	-1034
这事	-1035
▁美国	-1036
直到	-1037
细胞	-1038
表明	-1039
一直在	-1040
不再	-1041
资源	-1042
糟糕	-1043
减少	-1044
当地	-1045
官员	-1046
意思是	-1047
带着	-1048
▁我从	-1049
18	-1050
委员会	-1051
▁几	-1052
学院	-1053
水平	-1054
专家	-1055
▁很好	-1056
▁即使	-1057
晚餐	-1058
犯罪	-1059
表演	-1060
会儿	-1061
昨晚	-1062
▁小	-1063
销售	-1064
失败	-1065
聪明	-1066
▁本	-1067
oo	-1068
还要	-1069
)。	-1070
克斯	-1071
加入	-1072
绝对	-1073
其他人	-1074
▁作为	-1075
参与	-1076
尼亚	-1077
▁我认为	-1078
旅行	-1079
▁妈妈	-1080
完美	-1081
每个	-1082
奥巴马	-1083
告诉他	-1084
不行	-1085
超过	-1086
的情况	-1087
休息	-1088
阻止	-1089
▁你不能	-1090
为你	-1091
有效	-1092
相当	-1093
▁你应该	-1094
▁一些	-1095
内容	-1096
拉克	-1097
不同的	-1098
并没有	-1099
▁今晚	-1100
怀疑	-1101
ac	-1102
小姐	-1103
帮忙	-1104
在那里	-1105
公共	-1106
面对	-1107
客人	-1108
引起	-1109
伦敦	-1110
▁下	-1111
收入	-1112
▁我喜欢	-1113
网站	-1114
正确	-1115
责任	-1116
也有	-1117
力量	-1118
理由	-1119
让她	-1120
找到了	-1121
集团	-1122
最大的	-1123
的工作	-1124
我都	-1125
语言	-1126
▁最后	-1127
▁多	-1128
人士	-1129
测试	-1130
坚持	-1131
工程	-1132
的新	-1133
或是	-1134
贸易	-1135
足够	-1136
外面	-1137
程度	-1138
▁或许	-1139
还没	-1140
持续	-1141
爱你	-1142
想到	-1143
方向	-1144
心理	-1145
训练	-1146
韦斯特	-1147
十分	-1148
抓住	-1149
提出	-1150
广告	-1151
显然	-1152
怎么了	-1153
一份	-1154
用户	-1155
对吗	-1156
小心	-1157
都没有	-1158
值得	-1159
寻找	-1160
协议	-1161
回答	-1162
采取	-1163
贝斯特	-1164
▁不会	-1165
一名	-1166
怎么办	-1167
关注	-1168
有多	-1169
听着	-1170
监狱	-1171
而言	-1172
时代	-1173
男孩	-1174
的那	-1175
的影响	-1176
攻击	-1177
条件	-1178
第三	-1179
真正的	-1180
▁接	-1181
恐怖	-1182
▁因为你	-1183
关键	-1184
有的	-1185
▁我没有	-1186
规定	-1187
我们可以	-1188
改革	-1189
关心	-1190
约翰	-1191
需求	-1192
我们就	-1193
ic	-1194
长官	-1195
▁我本	-1196
的一切	-1197
停止	-1198
冷静	-1199
▁我需要	-1200
不是吗	-1201
期间	-1202
▁只有	-1203
发誓	-1204
什么事	-1205
贝斯特韦斯特	-1206
你去	-1207
业务	-1208
照顾	-1209
介绍	-1210
得很	-1211
领域	-1212
相信我	-1213
是吧	-1214
住在	-1215
博士	-1216
之间的	-1217
▁所以我	-1218
大多数	-1219
投资者	-1220
▁打	-1221
公园	-1222
结构	-1223
主意	-1224
私人	-1225
▁如果我们	-1226
一条	-1227
夫人	-1228
过你	-1229
功能	-1230
谋杀	-1231
▁拜托	-1232
权利	-1233
受害	-1234
拉斯	-1235
痛苦	-1236
让他们	-1237
贷款	-1238
你也	-1239
▁如	-1240
破坏	-1241
▁我叫	-1242
真的很	-1243
俄罗斯	-1244
后面	-1245
措施	-1246
▁新	-1247
现场	-1248
神经	-1249
亿美元	-1250
某些	-1251
▁伙计	-1252
恢复	-1253
不管	-1254
分子	-1255
案子	-1256
餐厅	-1257
快乐	-1258
40	-1259
样子	-1260
我没有	-1261
▁关于	-1262
区域	-1263
尝试	-1264
食品	-1265
太阳	-1266
袭击	-1267
北京	-1268
复杂	-1269
给她	-1270
心脏	-1271
用于	-1272
混蛋	-1273
生意	-1274
对不起	-1275
专业	-1276
他说	-1277
酒吧	-1278
状态	-1279
属于	-1280
一般	-1281
要去	-1282
达到	-1283
模式	-1284
世界上	-1285
身份	-1286
一张	-1287
否则	-1288
行业	-1289
再次	-1290
上面	-1291
开车	-1292
财政	-1293
我了	-1294
▁先生	-1295
资产	-1296
头发	-1297
我不想	-1298
病人	-1299
百万	-1300
机场	-1301
▁当你	-1302
也没	-1303
充满	-1304
一场	-1305
军队	-1306
类似	-1307
工具	-1308
长的	-1309
▁上帝	-1310
互联	-1311
但我	-1312
宣布	-1313
▁全	-1314
出发	-1315
看到了	-1316
▁更	-1317
成本	-1318
老板	-1319
资本	-1320
避免	-1321
的方式	-1322
得了	-1323
联邦	-1324
▁只	-1325
适合	-1326
小的	-1327
数字	-1328
现实	-1329
长期	-1330
机器	-1331
例如	-1332
独立	-1333
▁你为什么	-1334
不对	-1335
您的	-1336
大利	-1337
穿着	-1338
苹果	-1339
到达	-1340
真实	-1341
规模	-1342
我已经	-1343
停车	-1344
圣诞	-1345
面临	-1346
生的	-1347
因素	-1348
派对	-1349
共同	-1350
面前	-1351
▁总	-1352
▁别担心	-1353
想象	-1354
的研究	-1355
▁可是	-1356
也没有	-1357
普通	-1358
了我的	-1359
放松	-1360
互联网	-1361
时期	-1362
像是	-1363
了个	-1364
就可以	-1365
错了	-1366
这件事	-1367
每个人	-1368
▁卡	-1369
▁三	-1370
挑战	-1371
我们在	-1372
状况	-1373
▁你现在	-1374
一只	-1375
▁喂	-1376
儿童	-1377
第一个	-1378
介意	-1379
供应	-1380
思想	-1381
睡觉	-1382
▁快点	-1383
知识	-1384
000	-1385
am	-1386
既然	-1387
日子	-1388
申请	-1389
开枪	-1390
确保	-1391
节目	-1392
才是	-1393
▁比	-1394
凶手	-1395
消失	-1396
职业	-1397
礼物	-1398
高的	-1399
冰箱	-1400
▁带	-1401
说明	-1402
开玩笑	-1403
意大利	-1404
生气	-1405
都要	-1406
这就是	-1407
▁布	-1408
毫无	-1409
货币	-1410
首先	-1411
名的	-1412
香港	-1413
掉了	-1414
工业	-1415
不太	-1416
经过	-1417
观察	-1418
做出	-1419
我不能	-1420
些什么	-1421
制度	-1422
来看	-1423
欧元	-1424
走吧	-1425
年来	-1426
的地	-1427
西方	-1428
我不会	-1429
共和	-1430
▁一定	-1431
资料	-1432
也不会	-1433
观点	-1434
限制	-1435
难以	-1436
我喜欢	-1437
is	-1438
活着	-1439
会的	-1440
国内	-1441
移动	-1442
▁先	-1443
化的	-1444
经验	-1445
购买	-1446
任何人	-1447
终于	-1448
够了	-1449
国的	-1450
实在	-1451
小孩	-1452
▁一切	-1453
一年	-1454
再见	-1455
那边	-1456
困难	-1457
▁我们在	-1458
不见	-1459
▁孩子	-1460
re	-1461
垃圾	-1462
医疗	-1463
方案	-1464
尤其是	-1465
教授	-1466
使得	-1467
距离	-1468
身边	-1469
忘记	-1470
所谓	-1471
▁无论	-1472
他妈的	-1473
%。	-1474
▁该	-1475
信任	-1476
心的	-1477
亚洲	-1478
收到	-1479
老师	-1480
中国的	-1481
你怎么	-1482
形成	-1483
速度	-1484
其他的	-1485
as	-1486
我现在	-1487
意见	-1488
拿到	-1489
25	-1490
去找	-1491
是有	-1492
法庭	-1493
科学家	-1494
il	-1495
不够	-1496
幸运	-1497
不多	-1498
疯狂	-1499
去年	-1500
爆炸	-1501
的吗	-1502
是啊	-1503
没有人	-1504
和她	-1505
▁此	-1506
更好	-1507
法官	-1508
▁每次	-1509
植物	-1510
是我的	-1511
24	-1512
舒适	-1513
▁中	-1514
姑娘	-1515
几个月	-1516
的生活	-1517
co	-1518
多久	-1519
有可能	-1520
习惯	-1521
石油	-1522
英语	-1523
午餐	-1524
色列	-1525
事实上	-1526
答案	-1527
美丽	-1528
▁告诉我	-1529
▁s	-1530
几天	-1531
说你	-1532
ad	-1533
▁已经	-1534
▁英里	-1535
坐在	-1536
发现了	-1537
我们都	-1538
说过	-1539
华盛	-1540
情绪	-1541
那就	-1542
人在	-1543
系列	-1544
我不是	-1545
能源	-1546
华盛顿	-1547
团队	-1548
年代	-1549
▁但他	-1550
处于	-1551
有时	-1552
极了	-1553
有了	-1554
60	-1555
太太	-1556
干的	-1557
一定要	-1558
▁你不会	-1559
承诺	-1560
14	-1561
对手	-1562
简直	-1563
他们在	-1564
进一步	-1565
大概	-1566
她在	-1567
游泳	-1568
▁你真	-1569
债务	-1570
后的	-1571
他们会	-1572
和其他	-1573
13	-1574
下降	-1575
用来	-1576
等着	-1577
杰克	-1578
而是	-1579
▁如果他	-1580
发布	-1581
软件	-1582
▁你认为	-1583
某种	-1584
站在	-1585
自我	-1586
体系	-1587
有趣	-1588
比亚	-1589
▁怎么了	-1590
婚礼	-1591
文章	-1592
科技	-1593
住了	-1594
大床	-1595
▁实际上	-1596
态度	-1597
无论	-1598
她是	-1599
▁你不是	-1600
完了	-1601
指出	-1602
早就	-1603
周围	-1604
子弹	-1605
▁安	-1606
在那儿	-1607
把她	-1608
是不	-1609
这不是	-1610
受伤	-1611
角色	-1612
路上	-1613
▁是吗	-1614
特殊	-1615
家的	-1616
警告	-1617
出来的	-1618
▁看	-1619
作品	-1620
命令	-1621
稳定	-1622
大部分	-1623
的那个	-1624
不仅	-1625
▁告诉	-1626
un	-1627
你得	-1628
通知	-1629
▁我看	-1630
军事	-1631
▁我再	-1632
的原因	-1633
这么说	-1634
▁虽然	-1635
建设	-1636
▁孩子们	-1637
▁假	-1638
基因	-1639
向你	-1640
▁我真	-1641
希腊	-1642
▁我对	-1643
下午	-1644
大量	-1645
经理	-1646
降低	-1647
这一切	-1648
et	-1649
▁离	-1650
▁一旦	-1651
17	-1652
▁找	-1653
公开	-1654
有没有	-1655
刺激	-1656
各位	-1657
这位	-1658
选举	-1659
给我们	-1660
都很	-1661
199	-1662
▁中国	-1663
杀人	-1664
准备好	-1665
他就	-1666
内部	-1667
是为了	-1668
及其	-1669
交通	-1670
杂志	-1671
记忆	-1672
▁你没	-1673
▁我知道你	-1674
▁m	-1675
会在	-1676
跟他	-1677
之中	-1678
幸福	-1679
葡萄	-1680
听见	-1681
到处	-1682
不喜欢	-1683
还没有	-1684
利益	-1685
和平	-1686
接近	-1687
下了	-1688
大约	-1689
尔斯	-1690
格兰	-1691
▁很多	-1692
有很多	-1693
报纸	-1694
障碍	-1695
回来了	-1696
可怕	-1697
呼吸	-1698
外的	-1699
梦想	-1700
.00	-1701
▁明天	-1702
估计	-1703
邀请	-1704
▁由于	-1705
▁天啊	-1706
乔治	-1707
满足	-1708
记者	-1709
你自己	-1710
快速	-1711
来吧	-1712
浪费	-1713
真相	-1714
▁我们得	-1715
▁同时	-1716
意识到	-1717
我需要	-1718
型的	-1719
月份	-1720
外国	-1721
班牙	-1722
合同	-1723
采用	-1724
一定会	-1725
西班牙	-1726
经营	-1727
的经济	-1728
感情	-1729
的高	-1730
要是	-1731
实施	-1732
效果	-1733
正式	-1734
什么都	-1735
16	-1736
我们是	-1737
展示	-1738
西哥	-1739
土地	-1740
老婆	-1741
是一种	-1742
▁但是我	-1743
时的	-1744
样的	-1745
着我	-1746
阿拉	-1747
▁停	-1748
太多	-1749
疾病	-1750
答应	-1751
墨西哥	-1752
▁巴	-1753
公寓	-1754
描述	-1755
材料	-1756
物质	-1757
规则	-1758
句话	-1759
对的	-1760
信号	-1761
体育	-1762
动力	-1763
给了	-1764
里斯	-1765
巨大的	-1766
行了	-1767
迅速	-1768
来到	-1769
从未	-1770
教堂	-1771
表达	-1772
弟弟	-1773
旅游	-1774
毕业	-1775
议员	-1776
▁咱们	-1777
▁这种	-1778
我们有	-1779
ri	-1780
应当	-1781
投票	-1782
某个	-1783
课程	-1784
兴奋	-1785
套房	-1786
开了	-1787
火车	-1788
将在	-1789
正是	-1790
▁每天	-1791
▁b	-1792
一段	-1793
啤酒	-1794
道歉	-1795
形式	-1796
撒谎	-1797
针对	-1798
很大	-1799
遇到	-1800
集中	-1801
▁我只想	-1802
国家的	-1803
▁神	-1804
时刻	-1805
战斗	-1806
行驶	-1807
▁她们	-1808
怎么做	-1809
支付	-1810
有所	-1811
钥匙	-1812
非洲	-1813
▁另外	-1814
俱乐	-1815
出生	-1816
妹妹	-1817
损失	-1818
监管	-1819
这么多	-1820
在哪	-1821
邮件	-1822
化学	-1823
药物	-1824
试试	-1825
俱乐部	-1826
▁你怎么	-1827
感染	-1828
他了	-1829
合适	-1830
在乎	-1831
婚姻	-1832
民族	-1833
▁我听说	-1834
卫星	-1835
毒品	-1836
空气	-1837
为什么要	-1838
这样做	-1839
称为	-1840
费用	-1841
▁我和	-1842
岁的	-1843
的不	-1844
发表	-1845
我是说	-1846
会上	-1847
宗教	-1848
因为我	-1849
以色列	-1850
▁好像	-1851
你应该	-1852
失望	-1853
从没	-1854
生日	-1855
英雄	-1856
跟你说	-1857
开放	-1858
战略	-1859
人口	-1860
号码	-1861
哥们	-1862
▁好啊	-1863
她会	-1864
策略	-1865
股票	-1866
还能	-1867
纪念	-1868
做过	-1869
也可以	-1870
发生了	-1871
吃饭	-1872
消费者	-1873
!-	-1874
▁穿	-1875
并非	-1876
疯了	-1877
下面	-1878
周末	-1879
在他	-1880
大脑	-1881
对他	-1882
数量	-1883
的方法	-1884
你好	-1885
有限	-1886
飞行	-1887
我们不	-1888
▁别这样	-1889
▁恩	-1890
依然	-1891
很高兴	-1892
像个	-1893
原来	-1894
法院	-1895
面包	-1896
▁你们两个	-1897
ol	-1898
的主	-1899
航空	-1900
自动	-1901
在这个	-1902
实验室	-1903
取得	-1904
给他们	-1905
——	-1906
除非	-1907
▁请	-1908
一杯	-1909
是他	-1910
国王	-1911
大了	-1912
问你	-1913
听起来	-1914
同事	-1915
相同	-1916
首席	-1917
结束了	-1918
跟我说	-1919
卫生	-1920
的一些	-1921
进行了	-1922
也不是	-1923
▁伊	-1924
商品	-1925
坏了	-1926
就不	-1927
▁我们是	-1928
跳舞	-1929
品牌	-1930
学会	-1931
更好的	-1932
很棒	-1933
▁唯一	-1934
eb	-1935
思考	-1936
意外	-1937
舒服	-1938
竞选	-1939
▁你只	-1940
我们得	-1941
th	-1942
基于	-1943
定了	-1944
洛杉	-1945
的特	-1946
屁股	-1947
子上	-1948
罗马	-1949
▁我们都	-1950
哥哥	-1951
本书	-1952
难道	-1953
感兴趣	-1954
准备好了	-1955
为何	-1956
为止	-1957
内的	-1958
部队	-1959
董事	-1960
在一个	-1961
动作	-1962
叫我	-1963
地的	-1964
▁好好	-1965
▁所以你	-1966
工厂	-1967
批评	-1968
营业	-1969
小子	-1970
朝鲜	-1971
出现在	-1972
这一点	-1973
▁波	-1974
积极	-1975
阶段	-1976
▁你很	-1977
干净	-1978
病毒	-1979
▁换	-1980
那时	-1981
似的	-1982
去看	-1983
取消	-1984
现金	-1985
谷歌	-1986
好处	-1987
恐惧	-1988
▁自	-1989
公众	-1990
公平	-1991
士兵	-1992
成的	-1993
联盟	-1994
预测	-1995
▁他是个	-1996
商店	-1997
家族	-1998
警方	-1999
谢谢你	-2000
质量	-2001
差不多	-2002
人物	-2003
对此	-2004
我可	-2005
都能	-2006
你不能	-2007
年了	-2008
愚蠢	-2009
部长	-2010
洛杉矶	-2011
▁我们可以	-2012
▁我们需要	-2013
▁克	-2014
▁向	-2015
棒了	-2016
的一部分	-2017
人了	-2018
外交	-2019
小组	-2020
现象	-2021
▁哈	-2022
体的	-2023
原谅	-2024
教学	-2025
确认	-2026
信用	-2027
拿着	-2028
指控	-2029
▁喔	-2030
为我	-2031
把这	-2032
权力	-2033
还会	-2034
风格	-2035
合理	-2036
一项	-2037
不足	-2038
试验	-2039
制作	-2040
你来	-2041
庆祝	-2042
得不	-2043
是最	-2044
结论	-2045
▁我们有	-2046
怎么回事	-2047
多么	-2048
一样的	-2049
彼此	-2050
感受	-2051
受害者	-2052
放下	-2053
女朋友	-2054
不得不	-2055
失去了	-2056
...。	-2057
灵魂	-2058
进展	-2059
▁两个	-2060
一件	-2061
英寸	-2062
即将	-2063
引发	-2064
欧盟	-2065
相比	-2066
过程中	-2067
台湾	-2068
强烈	-2069
▁在这	-2070
演员	-2071
那天	-2072
上升	-2073
暴力	-2074
▁提供	-2075
美国的	-2076
中央	-2077
按照	-2078
▁既然	-2079
出来了	-2080
情报	-2081
▁凯	-2082
禁止	-2083
ur	-2084
操作	-2085
的机会	-2086
▁但我们	-2087
上班	-2088
冒险	-2089
地位	-2090
很久	-2091
旁边	-2092
革命	-2093
因为你	-2094
▁我们已经	-2095
往往	-2096
▁你必须	-2097
厨房	-2098
想的	-2099
整天	-2100
等待	-2101
说他	-2102
了你的	-2103
出版	-2104
▁不好	-2105
的国家	-2106
▁干	-2107
婴儿	-2108
宇宙	-2109
沙发	-2110
相对	-2111
自杀	-2112
▁?	-2113
性恋	-2114
我一	-2115
车里	-2116
在哪里	-2117
所有人	-2118
了她	-2119
冲突	-2120
博物	-2121
常常	-2122
提醒	-2123
紧急	-2124
彻底	-2125
收购	-2126
▁你只是	-2127
一遍	-2128
中间	-2129
▁我就是	-2130
发生了什么	-2131
ed	-2132
有着	-2133
行政	-2134
想知道	-2135
长时间	-2136
im	-2137
线索	-2138
视频	-2139
。。。	-2140
▁你真的	-2141
失踪	-2142
超级	-2143
我和	-2144
我们能	-2145
没问题	-2146
全国	-2147
名单	-2148
商务	-2149
左右	-2150
打击	-2151
找个	-2152
斯科	-2153
年轻人	-2154
安静	-2155
我所	-2156
类的	-2157
▁接下来	-2158
一块	-2159
见到你	-2160
债券	-2161
尔的	-2162
探讨	-2163
胜利	-2164
工作的	-2165
特的	-2166
恐怕	-2167
新鲜	-2168
▁我告诉	-2169
▁我应该	-2170
%,	-2171
80	-2172
▁根据	-2173
从而	-2174
做到	-2175
投入	-2176
见面	-2177
接触	-2178
角度	-2179
高级	-2180
▁结果	-2181
试着	-2182
不知	-2183
去做	-2184
结合	-2185
评论	-2186
不需要	-2187
去吧	-2188
对方	-2189
方便	-2190
的女人	-2191
也在	-2192
社区	-2193
情况下	-2194
方面的	-2195
上有	-2196
举行	-2197
哪个	-2198
道德	-2199
部的	-2200
▁随着	-2201
吃了	-2202
居民	-2203
立刻	-2204
不出	-2205
到你	-2206
在于	-2207
差点	-2208
调整	-2209
产业	-2210
广泛	-2211
相反	-2212
逮捕	-2213
伟大的	-2214
之外	-2215
在地	-2216
期待	-2217
连接	-2218
跟踪	-2219
博物馆	-2220
太好了	-2221
的感觉	-2222
吃的	-2223
才会	-2224
谈判	-2225
跟她	-2226
喜欢的	-2227
不少	-2228
尔夫	-2229
炸弹	-2230
细节	-2231
即便	-2232
花了	-2233
适应	-2234
靠近	-2235
ter	-2236
做得	-2237
尊重	-2238
更为	-2239
污染	-2240
用了	-2241
释放	-2242
▁当然了	-2243
分享	-2244
谈话	-2245
▁把他	-2246
你现在	-2247
▁我真的	-2248
基督	-2249
犹太	-2250
的孩子	-2251
该死的	-2252
搜索	-2253
看了	-2254
进了	-2255
知道的	-2256
指挥	-2257
购物	-2258
联合国	-2259
▁加	-2260
无线	-2261
移民	-2262
随便	-2263
找不到	-2264
那么多	-2265
ip	-2266
抗议	-2267
缺乏	-2268
▁我都	-2269
我自己	-2270
人和	-2271
可爱	-2272
是很	-2273
水果	-2274
▁有时候	-2275
保守	-2276
原则	-2277
妇女	-2278
学的	-2279
就这样	-2280
知道了	-2281
▁因为我们	-2282
一边	-2283
这场	-2284
千万	-2285
喝酒	-2286
富汗	-2287
性感	-2288
这项	-2289
黑暗	-2290
爱情	-2291
玻璃	-2292
知道吗	-2293
▁所有的	-2294
不该	-2295
的确	-2296
阿富汗	-2297
▁出	-2298
一致	-2299
信仰	-2300
利润	-2301
去的	-2302
闭嘴	-2303
▁我的意思是	-2304
心里	-2305
相互	-2306
什么的	-2307
利率	-2308
平均	-2309
杀死	-2310
气候	-2311
▁当我们	-2312
也不知道	-2313
它是	-2314
我只	-2315
转移	-2316
配有	-2317
▁天哪	-2318
计算机	-2319
不上	-2320
想想	-2321
and	-2322
▁而且	-2323
把这个	-2324
▁很高兴	-2325
▁地	-2326
手段	-2327
老兄	-2328
能量	-2329
ion	-2330
美国人	-2331
▁但如果	-2332
天啊	-2333
的对	-2334
预算	-2335
us	-2336
仔细	-2337
自身	-2338
麦克	-2339
▁得	-2340
愉快	-2341
每年	-2342
高中	-2343
ing	-2344
▁以及	-2345
领导人	-2346
老爸	-2347
赢得	-2348
观众	-2349
微波	-2350
离婚	-2351
记住	-2352
▁一直	-2353
你没	-2354
年龄	-2355
很少	-2356
模型	-2357
财富	-2358
下来的	-2359
告诉我们	-2360
代价	-2361
慢慢	-2362
旅馆	-2363
最大	-2364
激动	-2365
的海	-2366
70	-2367
前的	-2368
留在	-2369
那就是	-2370
合法	-2371
工资	-2372
▁有时	-2373
事业	-2374
访问	-2375
▁医生	-2376
了他的	-2377
▁你已经	-2378
▁我们现在	-2379
兰克	-2380
正如	-2381
遗憾	-2382
▁拉	-2383
床上	-2384
的好	-2385
▁要	-2386
你和	-2387
每次	-2388
陷入	-2389
可以在	-2390
把他们	-2391
过去的	-2392
关闭	-2393
失业	-2394
发生的	-2395
▁少	-2396
丰富	-2397
主席	-2398
单独	-2399
尔德	-2400
最高	-2401
优势	-2402
伙伴	-2403
究竟	-2404
共和党	-2405
居然	-2406
平衡	-2407
度的	-2408
请求	-2409
一起去	-2410
▁到	-2411
基地	-2412
维持	-2413
鼓励	-2414
▁就在	-2415
从来没有	-2416
一辆	-2417
可怜	-2418
录像	-2419
期的	-2420
双方	-2421
寻求	-2422
统治	-2423
ook	-2424
▁不好意思	-2425
▁我觉得你	-2426
拯救	-2427
监视	-2428
都被	-2429
▁我做	-2430
▁因为她	-2431
我们应该	-2432
图书	-2433
埃及	-2434
谈论	-2435
?!	-2436
抱怨	-2437
掌握	-2438
改善	-2439
白痴	-2440
综合	-2441
背景	-2442
还不	-2443
得到了	-2444
体验	-2445
到我	-2446
国会	-2447
我该	-2448
至于	-2449
韩国	-2450
▁后来	-2451
同性恋	-2452
大型	-2453
威尔	-2454
带来的	-2455
事故	-2456
斯的	-2457
明星	-2458
阿尔	-2459
▁她在	-2460
▁泰	-2461
厉害	-2462
社交	-2463
▁去年	-2464
▁注意	-2465
他们是	-2466
男朋友	-2467
我对	-2468
你觉得	-2469
动机	-2470
评估	-2471
一会儿	-2472
id	-2473
农业	-2474
味道	-2475
本身	-2476
满意	-2477
跟着	-2478
▁我们就	-2479
高速公路	-2480
包含	-2481
本来	-2482
500	-2483
政府的	-2484
2010	-2485
▁到了	-2486
了很多	-2487
▁p	-2488
官方	-2489
这家	-2490
几年	-2491
收益	-2492
要做	-2493
辈子	-2494
▁奥	-2495
人生	-2496
顾客	-2497
问题的	-2498
信心	-2499
地产	-2500
声称	-2501
承担	-2502
看法	-2503
给予	-2504
颜色	-2505
我希望	-2506
事务	-2507
创新	-2508
愤怒	-2509
案件	-2510
皮肤	-2511
▁却	-2512
▁开	-2513
充分	-2514
▁你对	-2515
伙计们	-2516
点什么	-2517
▁是不是	-2518
为什么不	-2519
印象	-2520
尼克	-2521
巴黎	-2522
起诉	-2523
主义者	-2524
▁我想要	-2525
出售	-2526
削减	-2527
十年	-2528
姐姐	-2529
符合	-2530
▁其实	-2531
▁我听	-2532
2008	-2533
两次	-2534
四个	-2535
天哪	-2536
患者	-2537
▁对不起	-2538
你所	-2539
平板	-2540
无所	-2541
邻居	-2542
给你们	-2543
很好的	-2544
的前	-2545
里克	-2546
▁突然	-2547
森林	-2548
的天	-2549
是你的	-2550
来这里	-2551
做好	-2552
和华	-2553
想过	-2554
这边	-2555
▁开始	-2556
给你的	-2557
交流	-2558
司机	-2559
工人	-2560
标志	-2561
▁没有	-2562
里有	-2563
▁我敢	-2564
你已经	-2565
孩子的	-2566
对待	-2567
▁本文	-2568
▁因为他	-2569
▁我刚刚	-2570
怀孕	-2571
▁如果你想	-2572
咨询	-2573
干吗	-2574
▁她会	-2575
怎么说	-2576
正确的	-2577
不敢	-2578
我才	-2579
检测	-2580
点儿	-2581
说法	-2582
随时	-2583
一切都	-2584
仅仅是	-2585
▁你想要	-2586
▁我相信	-2587
优秀	-2588
公里	-2589
室内	-2590
利的	-2591
得多	-2592
被人	-2593
▁今年	-2594
▁其他	-2595
从来没	-2596
的家伙	-2597
▁其	-2598
教练	-2599
窗户	-2600
▁很抱歉	-2601
拿大	-2602
无烟	-2603
澳大	-2604
把你的	-2605
▁太好了	-2606
▁我可不想	-2607
90	-2608
上周	-2609
▁你也	-2610
▁把你的	-2611
来源	-2612
预计	-2613
▁感觉	-2614
写的	-2615
州的	-2616
市场的	-2617
民主党	-2618
▁c	-2619
敌人	-2620
普遍	-2621
看过	-2622
的一种	-2623
▁我们能	-2624
伊朗	-2625
▁我正	-2626
我还是	-2627
手指	-2628
生存	-2629
的车	-2630
离开了	-2631
来找	-2632
▁宝贝	-2633
▁为什么不	-2634
▁第	-2635
冠军	-2636
如今	-2637
说服	-2638
它们的	-2639
明白了	-2640
澳大利亚	-2641
公布	-2642
受欢迎	-2643
作家	-2644
拍摄	-2645
趋势	-2646
道路	-2647
▁但这	-2648
是由	-2649
一半	-2650
但他	-2651
装置	-2652
你不会	-2653
微波炉	-2654
什么意思	-2655
不然	-2656
浴室	-2657
▁好啦	-2658
告诉她	-2659
▁你就是	-2660
一旦	-2661
感激	-2662
批准	-2663
达成	-2664
驾驶	-2665
大家都	-2666
他妈	-2667
起了	-2668
▁他想	-2669
出现了	-2670
▁回	-2671
安装	-2672
应对	-2673
浴缸	-2674
这是个	-2675
▁你没有	-2676
建造	-2677
担忧	-2678
概念	-2679
▁整个	-2680
特征	-2681
牺牲	-2682
没关系	-2683
耶和华	-2684
启动	-2685
太空	-2686
热情	-2687
男性	-2688
我应该	-2689
的情况下	-2690
很不	-2691
演出	-2692
竟然	-2693
彼得	-2694
海岸	-2695
金属	-2696
你知道吗	-2697
▁C	-2698
像你	-2699
带到	-2700
海军	-2701
祈祷	-2702
网上	-2703
轻松	-2704
追踪	-2705
顾问	-2706
严重的	-2707
▁听起来	-2708
这个问题	-2709
互相	-2710
实话	-2711
练习	-2712
耶稣	-2713
这份	-2714
明白吗	-2715
不住	-2716
会被	-2717
推动	-2718
时光	-2719
混乱	-2720
退休	-2721
▁不能	-2722
▁其中	-2723
▁有什么	-2724
丹尼	-2725
乐意	-2726
发言	-2727
熟悉	-2728
脑袋	-2729
送到	-2730
在哪儿	-2731
成功的	-2732
发射	-2733
故意	-2734
是我们	-2735
没事的	-2736
可不	-2737
收拾	-2738
明确	-2739
蛋白	-2740
说我	-2741
运行	-2742
▁你以为	-2743
▁g	-2744
助于	-2745
娱乐	-2746
得好	-2747
的老	-2748
赢了	-2749
▁不错	-2750
▁把它	-2751
在我们	-2752
女士们	-2753
??	-2754
也能	-2755
依赖	-2756
准确	-2757
讲话	-2758
▁我又	-2759
的发展	-2760
▁但是你	-2761
单位	-2762
回报	-2763
当我	-2764
杀手	-2765
蛋糕	-2766
一定是	-2767
和他的	-2768
也很	-2769
判断	-2770
劳动	-2771
头上	-2772
说是	-2773
提供了	-2774
的朋友	-2775
▁我本来	-2776
▁我们应该	-2777
声明	-2778
搞定	-2779
摄像	-2780
教师	-2781
注意到	-2782
你知道的	-2783
加强	-2784
神秘	-2785
逐渐	-2786
地址	-2787
期望	-2788
毁了	-2789
▁例如	-2790
这些人	-2791
嫌疑	-2792
当你	-2793
具体	-2794
形象	-2795
生态	-2796
算了	-2797
和一个	-2798
的男人	-2799
我们需要	-2800
顺利	-2801
在中国	-2802
我认为	-2803
是个好	-2804
严格	-2805
再来	-2806
制定	-2807
成立	-2808
种族	-2809
立即	-2810
重大	-2811
伊拉克	-2812
同样的	-2813
听我说	-2814
ap	-2815
再说	-2816
培养	-2817
球队	-2818
阅读	-2819
▁许多	-2820
的关系	-2821
南部	-2822
地点	-2823
布鲁	-2824
惊讶	-2825
▁以前	-2826
▁四	-2827
提到	-2828
表面	-2829
我就是	-2830
有一天	-2831
▁我以前	-2832
▁刚	-2833
上床	-2834
克力	-2835
尽力	-2836
灾难	-2837
▁找到	-2838
因为他	-2839
▁我发誓	-2840
只会	-2841
将军	-2842
尽快	-2843
街上	-2844
要么	-2845
这点	-2846
可能性	-2847
于是	-2848
者们	-2849
见的	-2850
▁昨晚	-2851
也不能	-2852
看到的	-2853
2009	-2854
成年	-2855
指导	-2856
▁他不	-2857
▁昨天	-2858
全世界	-2859
分之一	-2860
叫做	-2861
固定	-2862
夏天	-2863
在美国	-2864
的人们	-2865
之下	-2866
伊斯	-2867
倾向	-2868
命运	-2869
欣赏	-2870
的主要	-2871
的故事	-2872
下一	-2873
不安	-2874
带走	-2875
聚会	-2876
阿拉伯	-2877
▁尤其是	-2878
伯特	-2879
促进	-2880
傻瓜	-2881
在一	-2882
密码	-2883
对了	-2884
惩罚	-2885
收集	-2886
无关	-2887
统计	-2888
21	-2889
自行	-2890
马克	-2891
▁如今	-2892
▁给你	-2893
▁早	-2894
你看	-2895
收费	-2896
潜在	-2897
制造商	-2898
叫什么	-2899
万一	-2900
二十	-2901
档案	-2902
基斯坦	-2903
没有任何	-2904
买了	-2905
传播	-2906
农场	-2907
反正	-2908
所在	-2909
跑了	-2910
的信息	-2911
等一下	-2912
om	-2913
▁弗	-2914
巨大	-2915
:00	-2916
把我的	-2917
上海	-2918
你这	-2919
保罗	-2920
得太	-2921
成熟	-2922
承受	-2923
血液	-2924
这里的	-2925
of	-2926
▁S	-2927
不去	-2928
大楼	-2929
穿过	-2930
花园	-2931
知道你	-2932
32	-2933
作出	-2934
地下	-2935
培训	-2936
晚安	-2937
的钱	-2938
追求	-2939
▁我记得	-2940
上来	-2941
玩意	-2942
▁再见	-2943
▁斯	-2944
乐队	-2945
医学	-2946
后果	-2947
大陆	-2948
强调	-2949
指责	-2950
证人	-2951
的公司	-2952
ag	-2953
▁d	-2954
做法	-2955
引擎	-2956
接到	-2957
核心	-2958
个小时	-2959
变成了	-2960
的重要	-2961
▁你需要	-2962
▁十	-2963
将其	-2964
我吗	-2965
涉及	-2966
运输	-2967
▁几乎	-2968
▁通过	-2969
忍受	-2970
是从	-2971
氧化	-2972
绑架	-2973
英尺	-2974
的所有	-2975
的样子	-2976
知道我	-2977
简单的	-2978
上涨	-2979
卡车	-2980
财务	-2981
晚了	-2982
生长	-2983
男子	-2984
考试	-2985
▁相信我	-2986
▁乔	-2987
▁用	-2988
不停	-2989
公民	-2990
宣传	-2991
非法	-2992
▁他有	-2993
带来了	-2994
▁我无法	-2995
.5	-2996
便宜	-2997
分之	-2998
对付	-2999
小说	-3000
成人	-3001
首次	-3002
▁否则	-3003
大学的	-3004
▁您	-3005
配备	-3006
钱的	-3007
▁不要	-3008
这个人	-3009
▁我要去	-3010
保留	-3011
审判	-3012
▁离开	-3013
你需要	-3014
▁我们去	-3015
一会	-3016
证实	-3017
▁比如	-3018
▁我是个	-3019
▁距离	-3020
加拿大	-3021
两种	-3022
提议	-3023
演讲	-3024
视为	-3025
▁早上	-3026
▁他们是	-3027
厕所	-3028
度假	-3029
抢劫	-3030
的水	-3031
能在	-3032
重点	-3033
骄傲	-3034
▁他很	-3035
▁但她	-3036
▁我得	-3037
我是个	-3038
都可以	-3039
做了什么	-3040
之处	-3041
发出	-3042
否认	-3043
黑人	-3044
ebook	-3045
上市	-3046
假设	-3047
入住	-3048
区的	-3049
总理	-3050
指数	-3051
探索	-3052
数学	-3053
评价	-3054
▁对我	-3055
不是我	-3056
不过是	-3057
做的事	-3058
▁在这个	-3059
主管	-3060
指纹	-3061
▁今	-3062
▁妈	-3063
两年	-3064
代理	-3065
你很	-3066
ow	-3067
别人的	-3068
事的	-3069
同一	-3070
打扰	-3071
注射	-3072
浪漫	-3073
爱尔	-3074
物的	-3075
▁我给你	-3076
不及	-3077
奶奶	-3078
请你	-3079
领袖	-3080
我们去	-3081
给我的	-3082
▁我看到	-3083
协会	-3084
探员	-3085
爆发	-3086
贵的	-3087
唯一的	-3088
就不会	-3089
▁如果她	-3090
一周	-3091
上次	-3092
前往	-3093
回忆	-3094
提升	-3095
你必须	-3096
在我的	-3097
▁如果他们	-3098
伤口	-3099
发挥	-3100
巴西	-3101
混合	-3102
财产	-3103
这条	-3104
acebook	-3105
▁h	-3106
台上	-3107
桌子	-3108
癌症	-3109
迈克	-3110
分手	-3111
定义	-3112
对她	-3113
打了	-3114
扩大	-3115
摆脱	-3116
智慧	-3117
维尔	-3118
▁有些	-3119
巧克力	-3120
怎么会	-3121
▁可能是	-3122
ay	-3123
▁才	-3124
天的	-3125
少年	-3126
就有	-3127
开的	-3128
着你	-3129
艰难	-3130
选手	-3131
阳光	-3132
▁目前	-3133
房地产	-3134
是这样	-3135
那样的	-3136
我们现在	-3137
便利	-3138
就好	-3139
布莱	-3140
机制	-3141
要我	-3142
向我	-3143
玩具	-3144
停车场	-3145
咖啡机	-3146
如果我	-3147
每一个	-3148
发明	-3149
就没	-3150
的了	-3151
下一个	-3152
漂亮的	-3153
起来了	-3154
我们已经	-3155
出租	-3156
大人	-3157
法案	-3158
衰退	-3159
遭受	-3160
更大的	-3161
的行为	-3162
做个	-3163
当中	-3164
放到	-3165
海洋	-3166
不应该	-3167
最后一	-3168
▁哇	-3169
他有	-3170
姆斯	-3171
流动	-3172
▁感谢	-3173
▁英国	-3174
相信你	-3175
高尔夫	-3176
也要	-3177
争议	-3178
清理	-3179
渴望	-3180
爱尔兰	-3181
ab	-3182
▁f	-3183
▁的	-3184
作者	-3185
候选	-3186
克莱	-3187
司法	-3188
税收	-3189
就这么	-3190
ou	-3191
好事	-3192
宝宝	-3193
恶心	-3194
找出	-3195
豪华	-3196
餐馆	-3197
▁完全	-3198
你们俩	-3199
很重要	-3200
程度上	-3201
心情	-3202
敏感	-3203
更有	-3204
检察	-3205
海滩	-3206
点的	-3207
老鼠	-3208
醒来	-3209
和我们	-3210
提供的	-3211
特别是	-3212
头的	-3213
她了	-3214
▁他还	-3215
我真的	-3216
把这些	-3217
▁吃	-3218
▁站	-3219
从不	-3220
卧室	-3221
完整	-3222
式的	-3223
燃料	-3224
统一	-3225
▁把我	-3226
很大的	-3227
我想要	-3228
没有什么	-3229
不清	-3230
担任	-3231
美好	-3232
行吗	-3233
许可	-3234
地区的	-3235
▁你以前	-3236
▁2	-3237
叔叔	-3238
扮演	-3239
护士	-3240
绿色	-3241
迹象	-3242
长大	-3243
▁日本	-3244
不错的	-3245
也就是	-3246
你这个	-3247
吸血	-3248
援助	-3249
车上	-3250
首歌	-3251
黄金	-3252
▁人们	-3253
此同时	-3254
造成的	-3255
▁史	-3256
帽子	-3257
见你	-3258
为此	-3259
决策	-3260
就业	-3261
成长	-3262
登记	-3263
过度	-3264
遭到	-3265
采访	-3266
▁我被	-3267
可不是	-3268
▁听我说	-3269
加上	-3270
设置	-3271
详细	-3272
象征	-3273
▁科	-3274
亲自	-3275
孤独	-3276
红色	-3277
问我	-3278
万美元	-3279
▁贝斯特韦斯特	-3280
▁偷	-3281
微笑	-3282
搞砸	-3283
证券	-3284
▁你又	-3285
那个人	-3286
ot	-3287
专门	-3288
创建	-3289
智能	-3290
进步	-3291
▁我先	-3292
了一些	-3293
你想要	-3294
你没有	-3295
ir	-3296
一把	-3297
你呢	-3298
农民	-3299
加州	-3300
央行	-3301
奥运	-3302
少数	-3303
物理	-3304
足球	-3305
过我	-3306
运营	-3307
图书馆	-3308
?”	-3309
反映	-3310
按摩	-3311
星球	-3312
真好	-3313
ent	-3314
ers	-3315
系统的	-3316
▁他不是	-3317
▁我想我	-3318
▁所以我们	-3319
av	-3320
不懂	-3321
宠物	-3322
文学	-3323
的手	-3324
算是	-3325
老人	-3326
贝尔	-3327
▁必须	-3328
的声音	-3329
▁伙计们	-3330
假装	-3331
健身	-3332
技能	-3333
沿着	-3334
玛丽	-3335
舞蹈	-3336
开始了	-3337
症状	-3338
盯着	-3339
▁他把	-3340
2011	-3341
▁在我们	-3342
天气	-3343
都不会	-3344
不久	-3345
前面	-3346
晚饭	-3347
美味	-3348
肌肉	-3349
队伍	-3350
▁世界	-3351
免费的	-3352
太棒了	-3353
有时候	-3354
为他	-3355
去世	-3356
国民	-3357
文明	-3358
暂时	-3359
警官	-3360
▁如果你们	-3361
iv	-3362
▁使	-3363
游客	-3364
辆车	-3365
铁路	-3366
多少钱	-3367
两位	-3368
临时	-3369
伤心	-3370
例子	-3371
共产	-3372
几次	-3373
戒指	-3374
饮料	-3375
▁最近	-3376
很容易	-3377
提出了	-3378
巴基斯坦	-3379
▁唔	-3380
▁头	-3381
搭档	-3382
本地	-3383
空中	-3384
进口	-3385
▁是个	-3386
发现的	-3387
所谓的	-3388
▁你只要	-3389
ig	-3390
交给	-3391
加哥	-3392
唱歌	-3393
摄影	-3394
芝加哥	-3395
▁我明白	-3396
北部	-3397
在大	-3398
资格	-3399
过于	-3400
游泳池	-3401
▁德	-3402
丢了	-3403
参观	-3404
夜晚	-3405
技巧	-3406
流行	-3407
电池	-3408
西亚	-3409
诉讼	-3410
零售	-3411
▁帮我	-3412
特大床	-3413
▁我正在	-3414
他不	-3415
夫饼	-3416
推荐	-3417
无聊	-3418
纪录	-3419
也不想	-3420
的名字	-3421
足够的	-3422
他要	-3423
付出	-3424
勇敢	-3425
报警	-3426
教训	-3427
武装	-3428
汤姆	-3429
运用	-3430
大量的	-3431
我必须	-3432
两张	-3433
中有	-3434
以上	-3435
团体	-3436
天然	-3437
我真	-3438
贡献	-3439
什么了	-3440
的世界	-3441
▁我告诉你	-3442
我一直	-3443
房间里	-3444
能不能	-3445
该公司	-3446
从我	-3447
偶尔	-3448
勇气	-3449
转变	-3450
one	-3451
▁有点	-3452
▁你可以	-3453
不如	-3454
折磨	-3455
让它	-3456
走的	-3457
这就	-3458
应该是	-3459
ul	-3460
主题	-3461
对象	-3462
差异	-3463
效率	-3464
清洁	-3465
等你	-3466
赶紧	-3467
违反	-3468
▁我要你	-3469
接着	-3470
早晨	-3471
边缘	-3472
防止	-3473
些时候	-3474
华夫饼	-3475
os	-3476
··	-3477
不像	-3478
阶级	-3479
了这个	-3480
我看	-3481
摘要	-3482
精力	-3483
职位	-3484
透露	-3485
了我们	-3486
▁l	-3487
▁t	-3488
分配	-3489
▁那些	-3490
注意力	-3491
美丽的	-3492
你对	-3493
带有	-3494
成就	-3495
指望	-3496
每一	-3497
说不	-3498
主人	-3499
保障	-3500
宽敞	-3501
激烈	-3502
牛奶	-3503
生活的	-3504
的结果	-3505
22	-3506
显得	-3507
组成	-3508
路易	-3509
频道	-3510
45	-3511
华尔	-3512
干了	-3513
暴露	-3514
最佳	-3515
等我	-3516
认真	-3517
▁想想	-3518
你说的	-3519
把我们	-3520
未来的	-3521
▁女	-3522
将来	-3523
找你	-3524
没法	-3525
鸡蛋	-3526
▁研究	-3527
一开始	-3528
世界的	-3529
传统的	-3530
▁他已经	-3531
每个人都	-3532
▁和	-3533
▁戴	-3534
▁阿	-3535
争取	-3536
仪式	-3537
在了	-3538
大卫	-3539
罢了	-3540
美的	-3541
你不是	-3542
到这里	-3543
▁我刚才	-3544
▁我们知道	-3545
▁w	-3546
作业	-3547
宁愿	-3548
抵押	-3549
行星	-3550
这类	-3551
通讯	-3552
道理	-3553
圣诞节	-3554
欧元区	-3555
▁我可能	-3556
去哪	-3557
处的	-3558
天使	-3559
权的	-3560
规划	-3561
▁一点	-3562
一个小	-3563
听到了	-3564
异常	-3565
着了	-3566
石头	-3567
魔法	-3568
▁然后	-3569
在家	-3570
地上	-3571
将是	-3572
广场	-3573
300	-3574
他是个	-3575
有助于	-3576
看到你	-3577
▁你不知道	-3578
他还	-3579
图片	-3580
礼拜	-3581
表情	-3582
选民	-3583
▁这一	-3584
成为一个	-3585
35	-3586
不幸	-3587
博客	-3588
吸烟	-3589
暗示	-3590
比例	-3591
队长	-3592
肯定会	-3593
这家伙	-3594
▁住	-3595
▁明	-3596
做爱	-3597
地震	-3598
成绩	-3599
类型	-3600
那一	-3601
很多人	-3602
中最	-3603
回应	-3604
平台	-3605
早期	-3606
深刻	-3607
笑话	-3608
吸血鬼	-3609
是怎么	-3610
制的	-3611
古老	-3612
婊子	-3613
市长	-3614
打破	-3615
教会	-3616
时尚	-3617
机关	-3618
装饰	-3619
重复	-3620
▁不如	-3621
▁你可	-3622
完美的	-3623
就是这样	-3624
思维	-3625
来着	-3626
莱坞	-3627
队员	-3628
陌生	-3629
▁我从没	-3630
有限公司	-3631
经济学家	-3632
笨蛋	-3633
魅力	-3634
▁你该	-3635
感觉到	-3636
著名的	-3637
认为是	-3638
事了	-3639
协助	-3640
在线	-3641
局的	-3642
擅长	-3643
求你	-3644
电力	-3645
萨斯	-3646
说谎	-3647
▁一位	-3648
什么吗	-3649
各国	-3650
周一	-3651
国防	-3652
度过	-3653
抓到	-3654
满了	-3655
男友	-3656
组合	-3657
罪犯	-3658
裤子	-3659
车的	-3660
问问	-3661
▁我拿	-3662
喜欢你	-3663
▁事实上	-3664
乐观	-3665
分开	-3666
好多	-3667
想起	-3668
日益	-3669
沃尔	-3670
直升	-3671
而不	-3672
血管	-3673
高度	-3674
▁上面	-3675
▁冷静	-3676
告诉他们	-3677
停下	-3678
实践	-3679
广播	-3680
性和	-3681
恭喜	-3682
手上	-3683
疯子	-3684
诊断	-3685
▁就会	-3686
对我们	-3687
▁如果你不	-3688
ec	-3689
一大	-3690
单身	-3691
抛弃	-3692
提前	-3693
物品	-3694
花费	-3695
行李	-3696
他已经	-3697
信用卡	-3698
我们走	-3699
▁我发现	-3700
▁B	-3701
举办	-3702
你该	-3703
分离	-3704
破产	-3705
福利	-3706
精彩	-3707
街道	-3708
▁兄弟	-3709
的就是	-3710
▁高	-3711
为您	-3712
争论	-3713
享用	-3714
奇迹	-3715
崩溃	-3716
带上	-3717
惊喜	-3718
球员	-3719
球场	-3720
监督	-3721
辞职	-3722
▁她要	-3723
▁那个	-3724
不会有	-3725
的计划	-3726
▁你要是	-3727
我们不能	-3728
▁咱	-3729
两天	-3730
手里	-3731
的外	-3732
致命	-3733
远离	-3734
预期	-3735
▁我该	-3736
强大的	-3737
2007	-3738
▁我可不	-3739
首席执行	-3740
他人	-3741
你都	-3742
分别	-3743
士顿	-3744
导弹	-3745
布什	-3746
年纪	-3747
整体	-3748
死去	-3749
理想	-3750
背后	-3751
连续	-3752
▁政府	-3753
之类的	-3754
▁但现在	-3755
▁我只能	-3756
ia	-3757
南方	-3758
手的	-3759
损害	-3760
边的	-3761
门口	-3762
▁很明显	-3763
他很	-3764
动脉	-3765
发行	-3766
在她	-3767
头脑	-3768
我又	-3769
是要	-3770
某人	-3771
▁此外	-3772
就行了	-3773
▁准备好	-3774
塞尔	-3775
无辜	-3776
比我	-3777
监控	-3778
股市	-3779
营养	-3780
间的	-3781
▁把你	-3782
▁酒店	-3783
伊斯兰	-3784
发展的	-3785
我们必须	-3786
在此	-3787
帮他	-3788
当事	-3789
搜查	-3790
▁哪个	-3791
成为了	-3792
还可以	-3793
那么做	-3794
交换	-3795
天堂	-3796
尴尬	-3797
知的	-3798
邪恶	-3799
隐藏	-3800
让你们	-3801
一片	-3802
将要	-3803
居住	-3804
打个	-3805
民众	-3806
疑问	-3807
而非	-3808
间谍	-3809
朋友们	-3810
现在的	-3811
的一天	-3812
▁我今天	-3813
世上	-3814
买的	-3815
信贷	-3816
她就	-3817
尼斯	-3818
新兴	-3819
极端	-3820
▁学校	-3821
▁还有	-3822
心脏病	-3823
马上就	-3824
▁但他们	-3825
呆在	-3826
开支	-3827
慈善	-3828
服装	-3829
版本	-3830
穆斯	-3831
笔记	-3832
论文	-3833
路线	-3834
陪审	-3835
工作了	-3836
市中心	-3837
段时间	-3838
经济增长	-3839
重要的是	-3840
同情	-3841
哪些	-3842
地图	-3843
尽量	-3844
微软	-3845
膨胀	-3846
补充	-3847
▁各位	-3848
回家了	-3849
我以为	-3850
em	-3851
》(	-3852
下跌	-3853
动的	-3854
嫌犯	-3855
情感	-3856
我把	-3857
斯顿	-3858
海外	-3859
深入	-3860
美洲	-3861
腐败	-3862
首都	-3863
的女孩	-3864
一段时间	-3865
到来	-3866
区别	-3867
双人	-3868
复苏	-3869
更大	-3870
有过	-3871
比你	-3872
账户	-3873
退出	-3874
▁刚才	-3875
两个人	-3876
点东西	-3877
英格兰	-3878
原本	-3879
我做	-3880
教徒	-3881
确信	-3882
解雇	-3883
途径	-3884
▁摘要	-3885
▁那么	-3886
利比亚	-3887
▁我有点	-3888
什么都没	-3889
几个小时	-3890
▁我很高兴	-3891
▁稍	-3892
全力	-3893
公主	-3894
议会	-3895
▁也许	-3896
▁但在	-3897
▁显然	-3898
不会再	-3899
认真的	-3900
起来的	-3901
▁我很抱歉	-3902
▁。	-3903
▁喝	-3904
上学	-3905
义务	-3906
立法	-3907
议院	-3908
这会	-3909
▁也不	-3910
主义的	-3911
能找到	-3912
▁你这个	-3913
▁我根本	-3914
▁也	-3915
前进	-3916
坐下	-3917
编辑	-3918
脑子	-3919
这张	-3920
ard	-3921
华尔街	-3922
获得了	-3923
营业范围	-3924
依靠	-3925
发达	-3926
接入	-3927
的女	-3928
远的	-3929
198	-3930
已经在	-3931
我也是	-3932
▁我在想	-3933
不好意思	-3934
因为他们	-3935
独自	-3936
看的	-3937
股东	-3938
这不	-3939
▁包括	-3940
是真的	-3941
葡萄酒	-3942
一人	-3943
加油	-3944
强迫	-3945
总部	-3946
维护	-3947
通用	-3948
遭遇	-3949
com	-3950
▁你为什么不	-3951
一生	-3952
之内	-3953
困境	-3954
对其	-3955
最初	-3956
注册	-3957
辩护	-3958
重的	-3959
几分钟	-3960
回来的	-3961
从事	-3962
你又	-3963
到这	-3964
地狱	-3965
开门	-3966
整理	-3967
点了	-3968
可爱的	-3969
的风险	-3970
艺术家	-3971
元素	-3972
内心	-3973
听听	-3974
西部	-3975
▁他就	-3976
不见了	-3977
任何事	-3978
只是个	-3979
的照片	-3980
对我来说	-3981
对抗	-3982
支出	-3983
质的	-3984
马斯	-3985
有机会	-3986
离开这里	-3987
地说	-3988
富有	-3989
展开	-3990
当作	-3991
爵士	-3992
看我	-3993
立场	-3994
质疑	-3995
已经被	-3996
的支持	-3997
吹风	-3998
情人	-3999
欺骗	-4000
荣幸	-4001
一件事	-4002
就没有	-4003
▁我做了	-4004
我很抱歉	-4005
Fi	-4006
以下	-4007
对话	-4008
推出	-4009
运作	-4010
错过	-4011
候选人	-4012
改变了	-4013
机器人	-4014
生活中	-4015
这种事	-4016
▁我不喜欢	-4017
帝国	-4018
玉米	-4019
睡眠	-4020
秘书	-4021
▁最好	-4022
运动员	-4023
▁我也是	-4024
▁有没有	-4025
ation	-4026
27	-4027
▁米	-4028
全面	-4029
十二	-4030
国有	-4031
舞会	-4032
被杀	-4033
规矩	-4034
---	-4035
ill	-4036
参议员	-4037
自行车	-4038
▁你今天	-4039
是对	-4040
液晶	-4041
▁假如	-4042
在你的	-4043
有多少	-4044
▁我可没	-4045
看起来很	-4046
)、	-4047
Wi	-4048
沙漠	-4049
洗手	-4050
理念	-4051
脸上	-4052
▁一种	-4053
▁似乎	-4054
下来了	-4055
就好了	-4056
穆斯林	-4057
ut	-4058
▁将	-4059
在想	-4060
太平	-4061
房屋	-4062
斗争	-4063
正好	-4064
翻译	-4065
说她	-4066
▁除了	-4067
你就是	-4068
你是个	-4069
▁我听到	-4070
这是一个	-4071
日常	-4072
替代	-4073
白宫	-4074
美联	-4075
队的	-4076
ind	-4077
分析师	-4078
▁你一定	-4079
永远不会	-4080
不着	-4081
叫你	-4082
增强	-4083
有利	-4084
泡沫	-4085
良好	-4086
鼻子	-4087
ra	-4088
场所	-4089
应付	-4090
拿走	-4091
毕竟	-4092
耳朵	-4093
遵守	-4094
你喜欢	-4095
使用的	-4096
有一些	-4097
▁在这里	-4098
会计	-4099
大幅	-4100
定位	-4101
效应	-4102
无人	-4103
聊天	-4104
装备	-4105
▁我向	-4106
安全的	-4107
我说的	-4108
杀了你	-4109
▁你们要	-4110
竞争对手	-4111
借口	-4112
午饭	-4113
意的	-4114
打赌	-4115
报复	-4116
有线	-4117
死于	-4118
矛盾	-4119
获取	-4120
走到	-4121
▁把她	-4122
不一样	-4123
很可能	-4124
的能力	-4125
你为什么	-4126
首席执行官	-4127
人家	-4128
他想	-4129
他能	-4130
免疫	-4131
变态	-4132
学位	-4133
寻常	-4134
幻想	-4135
怪物	-4136
条款	-4137
▁恐怕	-4138
人民币	-4139
出发地	-4140
完成了	-4141
▁东	-4142
▁马	-4143
妓女	-4144
宣称	-4145
封信	-4146
尚未	-4147
当的	-4148
总会	-4149
毁灭	-4150
测量	-4151
清醒	-4152
通胀	-4153
首相	-4154
出去了	-4155
上一	-4156
代码	-4157
扫描	-4158
是她	-4159
是被	-4160
机械	-4161
来这	-4162
痕迹	-4163
的心	-4164
遗传	-4165
杀了他	-4166
23	-4167
▁古	-4168
农村	-4169
别再	-4170
加斯	-4171
始终	-4172
就算	-4173
左转	-4174
断了	-4175
的热	-4176
谎言	-4177
青年	-4178
▁总统	-4179
直升机	-4180
过去了	-4181
创作	-4182
动了	-4183
后悔	-4184
职责	-4185
▁尤其	-4186
▁晚上	-4187
现在就	-4188
的价格	-4189
组织的	-4190
2000	-4191
▁我儿子	-4192
1.	-4193
发电	-4194
夫妇	-4195
支票	-4196
的爱	-4197
眼镜	-4198
背叛	-4199
负担	-4200
错误的	-4201
需要的	-4202
▁人	-4203
▁给	-4204
下次	-4205
及时	-4206
奴隶	-4207
当局	-4208
相机	-4209
纤维	-4210
▁他要	-4211
▁你这	-4212
先生们	-4213
把自己	-4214
这么想	-4215
怎么样了	-4216
保安	-4217
几周	-4218
各个	-4219
大街	-4220
当前	-4221
得以	-4222
我爱	-4223
繁荣	-4224
股份	-4225
街区	-4226
被迫	-4227
过分	-4228
▁一般	-4229
▁对啊	-4230
停下来	-4231
金融危机	-4232
▁南	-4233
一群	-4234
两人	-4235
土耳	-4236
平静	-4237
我再	-4238
最新	-4239
的书	-4240
等到	-4241
过得	-4242
▁原来	-4243
什么呢	-4244
斯先生	-4245
▁你妈妈	-4246
▁洛	-4247
临床	-4248
则是	-4249
我刚	-4250
无数	-4251
谨慎	-4252
运气	-4253
▁她很	-4254
▁k	-4255
▁福	-4256
以外	-4257
修改	-4258
文字	-4259
▁上周	-4260
ak	-4261
克林	-4262
入了	-4263
冲击	-4264
卡尔	-4265
密的	-4266
把钱	-4267
土耳其	-4268
得到的	-4269
把它们	-4270
的目标	-4271
附近的	-4272
▁他现在	-4273
悲伤	-4274
日的	-4275
显著	-4276
这件	-4277
▁即便	-4278
▁在那	-4279
留下来	-4280
的基础	-4281
,000	-4282
▁你不想	-4283
什么东西	-4284
▁与此同时	-4285
▁我不明白	-4286
▁3	-4287
▁或	-4288
▁挺	-4289
苏联	-4290
规范	-4291
轨道	-4292
▁他对	-4293
▁别再	-4294
和他们	-4295
经济的	-4296
结婚了	-4297
世界上最	-4298
以便	-4299
入侵	-4300
实行	-4301
干掉	-4302
年度	-4303
年级	-4304
扩张	-4305
被告	-4306
难过	-4307
饮食	-4308
▁它是	-4309
会发生	-4310
吹风机	-4311
消失了	-4312
那不是	-4313
▁我们还	-4314
▁P	-4315
人数	-4316
升级	-4317
听过	-4318
平等	-4319
忠诚	-4320
把那	-4321
持有	-4322
棒的	-4323
牧师	-4324
白人	-4325
自信	-4326
我们该	-4327
我怎么	-4328
的政治	-4329
▁看上去	-4330
所有人都	-4331
”(	-4332
▁A	-4333
▁光	-4334
丰盛	-4335
你一	-4336
剩下	-4337
奥斯	-4338
并未	-4339
构成	-4340
鞋子	-4341
发言人	-4342
检察官	-4343
的学生	-4344
个小	-4345
名为	-4346
沟通	-4347
病了	-4348
第四	-4349
观念	-4350
设法	-4351
▁公司	-4352
上午	-4353
取代	-4354
强的	-4355
总裁	-4356
成果	-4357
月的	-4358
签署	-4359
经纪	-4360
随后	-4361
父亲的	-4362
让自己	-4363
▁他妈的	-4364
伟大	-4365
你真	-4366
同志	-4367
指示	-4368
温度	-4369
英镑	-4370
营销	-4371
返回	-4372
▁你看到	-4373
▁所以他	-4374
各地	-4375
外星	-4376
大声	-4377
所作	-4378
把手	-4379
本周	-4380
的性	-4381
相似	-4382
相处	-4383
签名	-4384
音机	-4385
▁我将	-4386
对你的	-4387
跟我们	-4388
▁我想知道	-4389
▁传	-4390
▁派	-4391
一座	-4392
主任	-4393
乡村	-4394
国外	-4395
城里	-4396
生涯	-4397
短信	-4398
融资	-4399
▁在此	-4400
很有趣	-4401
的第一	-4402
▁M	-4403
乘客	-4404
吃惊	-4405
女友	-4406
姐妹	-4407
年后	-4408
形态	-4409
最低	-4410
板上	-4411
王子	-4412
话题	-4413
酸奶	-4414
▁我到	-4415
之所以	-4416
很不错	-4417
董事会	-4418
▁在我看来	-4419
▁帕	-4420
仓库	-4421
分裂	-4422
可靠	-4423
向前	-4424
播放	-4425
着的	-4426
群体	-4427
脂肪	-4428
诚实	-4429
远点	-4430
gle	-4431
为我们	-4432
工程师	-4433
▁六	-4434
主动	-4435
保存	-4436
哥伦	-4437
嫉妒	-4438
家长	-4439
得对	-4440
忽视	-4441
汇率	-4442
着他	-4443
荷兰	-4444
车辆	-4445
一部分	-4446
基本上	-4447
最后的	-4448
银行的	-4449
▁她说她	-4450
▁我当时	-4451
▁我们只是	-4452
久的	-4453
仍在	-4454
全都	-4455
加坡	-4456
学者	-4457
尊敬	-4458
循环	-4459
抑制	-4460
排放	-4461
极其	-4462
检验	-4463
特兰	-4464
电梯	-4465
辐射	-4466
这座	-4467
了一种	-4468
好消息	-4469
有些人	-4470
ob	-4471
▁手	-4472
却是	-4473
塑料	-4474
天才	-4475
已被	-4476
改进	-4477
穿上	-4478
走开	-4479
▁以后	-4480
▁最终	-4481
尽可能	-4482
希望你	-4483
这是我	-4484
这是我的	-4485
动手	-4486
奇的	-4487
季节	-4488
日期	-4489
瑞士	-4490
继承	-4491
老大	-4492
发生在	-4493
受不了	-4494
好莱坞	-4495
存在的	-4496
小时候	-4497
接下来	-4498
求你了	-4499
看着我	-4500
麻烦了	-4501
▁我们将	-4502
只有一个	-4503
合并	-4504
地面	-4505
委托	-4506
物种	-4507
船上	-4508
赤字	-4509
转向	-4510
复杂的	-4511
▁我妈妈	-4512
▁后	-4513
但你	-4514
何时	-4515
大使	-4516
环保	-4517
为自己	-4518
产生的	-4519
▁他不会	-4520
▁法	-4521
依据	-4522
写了	-4523
分布	-4524
右转	-4525
吸收	-4526
哲学	-4527
室里	-4528
屏幕	-4529
并在	-4530
戏剧	-4531
所需	-4532
有钱	-4533
目击	-4534
▁of	-4535
▁你别	-4536
听说过	-4537
的日子	-4538
的电话	-4539
的美国	-4540
相关的	-4541
良好的	-4542
▁你刚才	-4543
,”	-4544
▁罗	-4545
了么	-4546
出色	-4547
变的	-4548
复制	-4549
大道	-4550
笔钱	-4551
缺陷	-4552
他们都	-4553
犹太人	-4554
的中国	-4555
相同的	-4556
认识你	-4557
▁你自己	-4558
▁告诉他	-4559
▁北	-4560
交谈	-4561
图像	-4562
完善	-4563
小型	-4564
就行	-4565
明治	-4566
比尔	-4567
见了	-4568
重视	-4569
锻炼	-4570
▁别管	-4571
但是我	-4572
我要去	-4573
2012	-4574
场的	-4575
强大	-4576
想去	-4577
摩托	-4578
法的	-4579
留言	-4580
短期	-4581
脆弱	-4582
覆盖	-4583
观看	-4584
越南	-4585
部落	-4586
马里	-4587
▁它的	-4588
人们的	-4589
房子里	-4590
说的是	-4591
平板电视	-4592
他也	-4593
印第	-4594
含量	-4595
大众	-4596
德的	-4597
政党	-4598
模特	-4599
清晰	-4600
爱上	-4601
过敏	-4602
▁为何	-4603
▁印度	-4604
当事人	-4605
我给你	-4606
第二个	-4607
▁他知道	-4608
不动	-4609
决心	-4610
友好	-4611
反抗	-4612
各自	-4613
器官	-4614
器的	-4615
得出	-4616
斯基	-4617
爱好	-4618
重建	-4619
▁这里	-4620
精神病	-4621
进行的	-4622
▁我说了	-4623
什么事了	-4624
oogle	-4625
26	-4626
协调	-4627
原始	-4628
变了	-4629
安慰	-4630
愿望	-4631
旨在	-4632
更高	-4633
消防	-4634
礼貌	-4635
被捕	-4636
透了	-4637
你认为	-4638
那家伙	-4639
▁他没有	-4640
▁我讨厌	-4641
我的朋友	-4642
主教	-4643
加速	-4644
呼吁	-4645
拍卖	-4646
气的	-4647
皇家	-4648
绝望	-4649
钻石	-4650
▁想要	-4651
▁这间	-4652
你就会	-4653
受到了	-4654
最近的	-4655
现在是	-4656
被称为	-4657
oc	-4658
交叉	-4659
人群	-4660
将被	-4661
推进	-4662
未能	-4663
果汁	-4664
足以	-4665
art	-4666
▁哪里	-4667
你妈妈	-4668
在他的	-4669
是如何	-4670
许多人	-4671
▁你一直	-4672
▁你还是	-4673
会很	-4674
公正	-4675
厌倦	-4676
四处	-4677
成分	-4678
我猜	-4679
最多	-4680
气体	-4681
沮丧	-4682
能否	-4683
走向	-4684
骗子	-4685
▁当她	-4686
一系列	-4687
大规模	-4688
说的话	-4689
▁我就知道	-4690
侦探	-4691
出于	-4692
形势	-4693
时机	-4694
自豪	-4695
说出	-4696
进化	-4697
▁任何	-4698
克里斯	-4699
苏格兰	-4700
hone	-4701
▁一切都	-4702
▁我准备	-4703
你的朋友	-4704
是什么意思	-4705
28	-4706
ne	-4707
▁由	-4708
不愿	-4709
好么	-4710
密切	-4711
没了	-4712
聚集	-4713
肿瘤	-4714
▁当他	-4715
上述	-4716
切尔	-4717
加利	-4718
叫他	-4719
季度	-4720
布朗	-4721
当成	-4722
德里	-4723
手下	-4724
找我	-4725
授权	-4726
政客	-4727
橄榄	-4728
骨头	-4729
▁回到	-4730
不愿意	-4731
同一个	-4732
就是个	-4733
很抱歉	-4734
我们来	-4735
找到的	-4736
的想法	-4737
2006	-4738
▁告诉你	-4739
倒了	-4740
十字	-4741
困扰	-4742
威廉	-4743
审查	-4744
恶魔	-4745
是想	-4746
▁一起	-4747
也许会	-4748
了一下	-4749
我爱你	-4750
的数据	-4751
的消息	-4752
经历了	-4753
关掉	-4754
包装	-4755
取决	-4756
周二	-4757
此事	-4758
牙齿	-4759
看你	-4760
船长	-4761
震惊	-4762
领先	-4763
▁对你	-4764
我保证	-4765
的人都	-4766
类似的	-4767
酒店的	-4768
▁我肯定	-4769
▁为什么要	-4770
37	-4771
▁若	-4772
他吗	-4773
子了	-4774
干活	-4775
快走	-4776
拉德	-4777
方的	-4778
激情	-4779
细菌	-4780
般的	-4781
葬礼	-4782
一些人	-4783
别担心	-4784
年轻的	-4785
美好的	-4786
考虑到	-4787
▁对我来说	-4788
▁啥	-4789
场合	-4790
多年	-4791
学术	-4792
打败	-4793
更新	-4794
特点	-4795
辩论	-4796
魔鬼	-4797
man	-4798
▁他没	-4799
印第安	-4800
▁托	-4801
不必	-4802
去过	-4803
废话	-4804
必然	-4805
洗衣	-4806
的名	-4807
示威	-4808
走进	-4809
一点点	-4810
帮我们	-4811
杀了我	-4812
范围内	-4813
▁就这样	-4814
这样的人	-4815
▁但是如果	-4816
上校	-4817
乐趣	-4818
众多	-4819
作战	-4820
合伙	-4821
城堡	-4822
屋里	-4823
一个月	-4824
不是你	-4825
做一个	-4826
在外面	-4827
没事吧	-4828
的事实	-4829
美联储	-4830
自己是	-4831
ie	-4832
▁写	-4833
▁数	-4834
他对	-4835
优先	-4836
占据	-4837
同学	-4838
回头	-4839
尔顿	-4840
屋子	-4841
店里	-4842
拥抱	-4843
提起	-4844
牛仔	-4845
蔬菜	-4846
设立	-4847
说说	-4848
逃跑	-4849
镜头	-4850
黑色	-4851
▁德国	-4852
的一次	-4853
真实的	-4854
美元的	-4855
主持	-4856
十五	-4857
吸毒	-4858
损伤	-4859
明的	-4860
来过	-4861
补偿	-4862
逻辑	-4863
金山	-4864
高管	-4865
ber	-4866
三明治	-4867
喝一杯	-4868
特别的	-4869
▁如果有	-4870
▁我看见	-4871
▁但是我们	-4872
▁我觉得我	-4873
up	-4874
▁《	-4875
个好	-4876
发了	-4877
口气	-4878
女生	-4879
它会	-4880
展现	-4881
抽烟	-4882
查看	-4883
沉默	-4884
爷爷	-4885
输入	-4886
197	-4887
▁我爱	-4888
所以我	-4889
真是太	-4890
际公路	-4891
陪审团	-4892
中了	-4893
主张	-4894
外科	-4895
白色	-4896
走出	-4897
风景	-4898
▁女人	-4899
就开始	-4900
42	-4901
▁5	-4902
一声	-4903
助理	-4904
城镇	-4905
支撑	-4906
浏览	-4907
演奏	-4908
用品	-4909
耐心	-4910
进程	-4911
面试	-4912
ell	-4913
▁再说	-4914
▁她有	-4915
▁星期	-4916
不明白	-4917
别这样	-4918
必要的	-4919
是一位	-4920
的位置	-4921
糟糕的	-4922
非常好	-4923
▁但是他	-4924
▁我父亲	-4925
!!	-4926
一支	-4927
交往	-4928
使其	-4929
克拉	-4930
化妆	-4931
去见	-4932
吉尔	-4933
座位	-4934
正义	-4935
而来	-4936
警报	-4937
那你	-4938
雇员	-4939
了他们	-4940
取决于	-4941
叙利亚	-4942
搞砸了	-4943
有意思	-4944
的一项	-4945
舒适的	-4946
跟他们	-4947
路易斯	-4948
▁你什么时候	-4949
▁我告诉过你	-4950
▁因	-4951
一间	-4952
之为	-4953
佛罗	-4954
天空	-4955
带他	-4956
携带	-4957
死者	-4958
玫瑰	-4959
远远	-4960
▁上次	-4961
▁他也	-4962
▁每个	-4963
收音机	-4964
更容易	-4965
有效的	-4966
久了	-4967
全套	-4968
围绕	-4969
大会	-4970
局面	-4971
强制	-4972
碎片	-4973
累了	-4974
该国	-4975
货物	-4976
配合	-4977
我们所	-4978
来这儿	-4979
生活在	-4980
青少年	-4981
告诉你的	-4982
▁我不认为	-4983
▁我只知道	-4984
你做	-4985
全身	-4986
多个	-4987
天赋	-4988
客气	-4989
掉的	-4990
有机	-4991
毫不	-4992
汉堡	-4993
火山	-4994
的路	-4995
▁正如	-4996
历史上	-4997
和你的	-4998
那些人	-4999
,"	-5000
ub	-5001
一句	-5002
两周	-5003
代替	-5004
凌晨	-5005
双手	-5006
口袋	-5007
结局	-5008
美女	-5009
美金	-5010
胳膊	-5011
至今	-5012
贫困	-5013
通道	-5014
额外	-5015
▁这位	-5016
共和国	-5017
太多了	-5018
我的话	-5019
设计的	-5020
▁我决定	-5021
▁现在你	-5022
液晶电视	-5023
▁谁	-5024
一部	-5025
了几	-5026
体制	-5027
她很	-5028
幽默	-5029
强奸	-5030
情形	-5031
我正	-5032
明智	-5033
模糊	-5034
消除	-5035
移植	-5036
▁或是	-5037
对他们	-5038
这两个	-5039
之地	-5040
开展	-5041
影片	-5042
想着	-5043
明年	-5044
杀害	-5045
每周	-5046
犯了	-5047
种植	-5048
笑了	-5049
询问	-5050
走廊	-5051
预防	-5052
est	-5053
下去了	-5054
他们就	-5055
保险箱	-5056
有问题	-5057
的一样	-5058
▁奥巴马	-5059
亿美元的	-5060
op	-5061
一本	-5062
会让	-5063
低于	-5064
俄国	-5065
团结	-5066
土壤	-5067
尖叫	-5068
岁了	-5069
布斯	-5070
带你	-5071
平民	-5072
我国	-5073
护理	-5074
提交	-5075
爱我	-5076
精确	-5077
起的	-5078
钢琴	-5079
钱包	-5080
▁第二	-5081
危险的	-5082
我也不	-5083
的那样	-5084
▁是什么	-5085
▁是因为	-5086
但在	-5087
喝醉	-5088
弥补	-5089
志愿	-5090
码头	-5091
碰到	-5092
置信	-5093
联络	-5094
药品	-5095
超越	-5096
遗产	-5097
就像是	-5098
的社会	-5099
向你保证	-5100
人会	-5101
任命	-5102
优惠	-5103
体内	-5104
出席	-5105
场景	-5106
屋顶	-5107
把枪	-5108
抵达	-5109
案的	-5110
火箭	-5111
秩序	-5112
粉丝	-5113
维亚	-5114
见我	-5115
迫使	-5116
去哪儿	-5117
可怕的	-5118
2005	-5119
专利	-5120
严肃	-5121
为人	-5122
也就	-5123
会员	-5124
伴侣	-5125
但这	-5126
心灵	-5127
思议	-5128
我家	-5129
战士	-5130
摩根	-5131
格雷	-5132
港口	-5133
现状	-5134
疼痛	-5135
突破	-5136
金钱	-5137
飞船	-5138
旧金山	-5139
▁我自己	-5140
告诉你们	-5141
丽莎	-5142
他被	-5143
储备	-5144
别动	-5145
剧院	-5146
名叫	-5147
好啊	-5148
歌曲	-5149
法规	-5150
秒钟	-5151
致力	-5152
读者	-5153
述了	-5154
阻碍	-5155
隐瞒	-5156
▁你跟	-5157
▁像你	-5158
▁每年	-5159
你还是	-5160
所说的	-5161
▁如果是	-5162
东京	-5163
企图	-5164
你个	-5165
发的	-5166
可真	-5167
夫妻	-5168
开口	-5169
担保	-5170
探测	-5171
放开	-5172
整晚	-5173
航班	-5174
▁他从	-5175
▁她想	-5176
▁她被	-5177
▁结论	-5178
迟到了	-5179
如果我们	-5180
应用程序	-5181
ce	-5182
▁唐	-5183
嘲笑	-5184
树林	-5185
空调	-5186
赔偿	-5187
▁首先	-5188
是非常	-5189
不良	-5190
你那	-5191
保姆	-5192
入口	-5193
又是	-5194
外套	-5195
安娜	-5196
岗位	-5197
带她	-5198
待在	-5199
拜访	-5200
摧毁	-5201
股价	-5202
脖子	-5203
要在	-5204
边境	-5205
进的	-5206
马拉	-5207
出租车	-5208
独特的	-5209
的事了	-5210
给自己	-5211
陌生人	-5212
▁你干嘛	-5213
的是什么	-5214
▁你看起来	-5215
个性	-5216
付钱	-5217
呈现	-5218
大麻	-5219
带了	-5220
忽略	-5221
散步	-5222
椅子	-5223
特性	-5224
箱子	-5225
肚子	-5226
警局	-5227
▁听说	-5228
▁是谁	-5229
个孩子	-5230
充满了	-5231
给了我	-5232
州际公路	-5233
”?	-5234
假期	-5235
和谐	-5236
就得	-5237
招呼	-5238
瑞典	-5239
病的	-5240
落在	-5241
识别	-5242
饼干	-5243
▁使用	-5244
▁干嘛	-5245
企业的	-5246
想要的	-5247
愚蠢的	-5248
最后一次	-5249
觉得自己	-5250
这样一个	-5251
um	-5252
一台	-5253
三十	-5254
像我	-5255
共享	-5256
创始	-5257
好人	-5258
射击	-5259
打过	-5260
模拟	-5261
比利	-5262
淋浴	-5263
添加	-5264
熨斗	-5265
经典	-5266
维斯	-5267
脾气	-5268
转换	-5269
雇佣	-5270
▁是呀	-5271
想办法	-5272
无障碍	-5273
计划的	-5274
任何东西	-5275
ge	-5276
两国	-5277
制服	-5278
得更	-5279
排除	-5280
格林	-5281
玩的	-5282
能让	-5283
舞台	-5284
街头	-5285
谴责	-5286
进攻	-5287
▁多谢	-5288
他没有	-5289
▁女士们	-5290
电子邮件	-5291
▁尼	-5292
三天	-5293
专注	-5294
们的	-5295
周五	-5296
工会	-5297
意志	-5298
我被	-5299
所为	-5300
有用	-5301
洗澡	-5302
的头	-5303
着呢	-5304
老实	-5305
虚拟	-5306
里了	-5307
▁同样	-5308
太平洋	-5309
得很好	-5310
我们将	-5311
收到了	-5312
时间了	-5313
还活着	-5314
▁在美国	-5315
▁我们只	-5316
一点也不	-5317
不可思议	-5318
中国政府	-5319
你们两个	-5320
ah	-5321
为她	-5322
修复	-5323
写作	-5324
卡罗	-5325
在其	-5326
坦白	-5327
帮她	-5328
打扮	-5329
时报	-5330
楼上	-5331
脱离	-5332
蓝色	-5333
那条	-5334
▁我查	-5335
从来不	-5336
我正在	-5337
福尼亚	-5338
称之为	-5339
休闲	-5340
克里	-5341
前景	-5342
展览	-5343
恋爱	-5344
打架	-5345
裙子	-5346
逃避	-5347
通货	-5348
▁总是	-5349
关系的	-5350
▁你可能	-5351
上网	-5352
中东	-5353
伙子	-5354
体现	-5355
分散	-5356
奖励	-5357
安德	-5358
家具	-5359
懂得	-5360
指标	-5361
气氛	-5362
流的	-5363
着手	-5364
紧缩	-5365
设有	-5366
中国人	-5367
优秀的	-5368
说出来	-5369
会使	-5370
发动	-5371
周期	-5372
女的	-5373
快的	-5374
燃烧	-5375
相应	-5376
自助	-5377
路了	-5378
这很	-5379
那位	-5380
野生	-5381
问他	-5382
▁子弹	-5383
今天的	-5384
克萨斯	-5385
有一张	-5386
▁准备好了	-5387
29	-5388
买卖	-5389
从中	-5390
伯格	-5391
妙的	-5392
底下	-5393
所能	-5394
整整	-5395
查理	-5396
棒球	-5397
温暖	-5398
缓慢	-5399
一无所	-5400
他们要	-5401
和你说	-5402
在里面	-5403
我们也	-5404
1000	-5405
我们没有	-5406
早些时候	-5407
还有什么	-5408
▁公	-5409
三年	-5410
三次	-5411
假的	-5412
来点	-5413
疗法	-5414
老公	-5415
▁乔治	-5416
▁如何	-5417
增加了	-5418
女人的	-5419
数据库	-5420
的环境	-5421
莫斯科	-5422
▁他们想	-5423
▁科学家	-5424
恐怖分子	-5425
▁往	-5426
▁近	-5427
产量	-5428
亲密	-5429
具备	-5430
友谊	-5431
喝了	-5432
招待	-5433
操纵	-5434
柏林	-5435
焦虑	-5436
神的	-5437
策划	-5438
行事	-5439
认可	-5440
过他	-5441
里达	-5442
你是谁	-5443
因为她	-5444
摄像机	-5445
第二次	-5446
维加斯	-5447
问题是	-5448
▁他就是	-5449
▁我只要	-5450
工作人员	-5451
难以置信	-5452
od	-5453
也将	-5454
人是	-5455
在意	-5456
字母	-5457
宴会	-5458
感恩	-5459
手臂	-5460
旅客	-5461
无可	-5462
激励	-5463
老年	-5464
聊聊	-5465
荣誉	-5466
薪水	-5467
赶快	-5468
顺便	-5469
the	-5470
▁从来	-5471
▁据说	-5472
所做的	-5473
经济体	-5474
▁这就是	-5475
之际	-5476
伍德	-5477
传染	-5478
圣经	-5479
地带	-5480
奥尔	-5481
导演	-5482
层的	-5483
工艺	-5484
拿出	-5485
楼梯	-5486
清单	-5487
甜心	-5488
留着	-5489
米尔	-5490
者和	-5491
解放	-5492
成年人	-5493
波士顿	-5494
的一位	-5495
的安全	-5496
的需求	-5497
自己在	-5498
让你的	-5499
负责人	-5500
▁我爱你	-5501
最后一个	-5502
这些东西	-5503
75	-5504
不满	-5505
会是	-5506
使我	-5507
别无	-5508
化了	-5509
含有	-5510
国务	-5511
头了	-5512
它在	-5513
廉价	-5514
抑郁	-5515
旋转	-5516
汽油	-5517
角落	-5518
资助	-5519
车子	-5520
配置	-5521
▁估计	-5522
▁是你	-5523
你是否	-5524
分钟后	-5525
好不好	-5526
知道他	-5527
肯定是	-5528
▁我当然	-5529
哥伦比亚	-5530
▁为什么你	-5531
▁作为一个	-5532
▁劳	-5533
不大	-5534
养的	-5535
刑事	-5536
办事	-5537
多种	-5538
引导	-5539
手中	-5540
掌控	-5541
热的	-5542
空军	-5543
误会	-5544
▁in	-5545
▁晚安	-5546
供应商	-5547
希望能	-5548
▁他们的	-5549
▁他说他	-5550
▁我可是	-5551
▁把他们	-5552
告诉过你	-5553
最喜欢的	-5554
高速互联网	-5555
ev	-5556
▁希	-5557
▁活	-5558
五个	-5559
养老	-5560
创业	-5561
判决	-5562
周六	-5563
干预	-5564
开着	-5565
录音	-5566
神圣	-5567
鉴于	-5568
风味	-5569
▁我会	-5570
▁欧洲	-5571
不是很	-5572
什么是	-5573
洗手间	-5574
百分之	-5575
▁你父亲	-5576
ep	-5577
▁算	-5578
一套	-5579
亨利	-5580
创意	-5581
坐着	-5582
好奇	-5583
形容	-5584
收藏	-5585
早点	-5586
标记	-5587
死后	-5588
那只	-5589
集体	-5590
400	-5591
▁刚刚	-5592
▁够了	-5593
▁穿着	-5594
不能再	-5595
中心的	-5596
六个月	-5597
去哪里	-5598
可能在	-5599
弗兰克	-5600
这只是	-5601
需要你	-5602
▁你认识	-5603
▁别紧张	-5604
▁你不觉得	-5605
na	-5606
严厉	-5607
体重	-5608
克的	-5609
党的	-5610
出血	-5611
女王	-5612
小镇	-5613
尺寸	-5614
无疑	-5615
滑雪	-5616
迷你	-5617
不在乎	-5618
丰富的	-5619
经济学	-5620
▁因为他们	-5621
▁T	-5622
一团	-5623
事物	-5624
保密	-5625
做事	-5626
出门	-5627
利斯	-5628
宪法	-5629
崇拜	-5630
救援	-5631
诸如	-5632
躺在	-5633
发生过	-5634
来自于	-5635
过来了	-5636
▁上帝啊	-5637
dp	-5638
ex	-5639
▁R	-5640
之旅	-5641
今早	-5642
名人	-5643
周日	-5644
对着	-5645
尽情	-5646
岛上	-5647
抵抗	-5648
指定	-5649
更糟	-5650
言论	-5651
过后	-5652
风暴	-5653
▁你先	-5654
▁过去	-5655
当地的	-5656
我妈妈	-5657
的内容	-5658
的决定	-5659
致力于	-5660
过来的	-5661
▁我同意	-5662
▁早上好	-5663
作为一个	-5664
▁亚	-5665
▁前	-5666
▁普	-5667
但她	-5668
促使	-5669
参考	-5670
干扰	-5671
政权	-5672
本质	-5673
特工	-5674
补贴	-5675
规律	-5676
读书	-5677
轻易	-5678
预言	-5679
▁你被	-5680
▁喜欢	-5681
▁恭喜	-5682
举行的	-5683
你们要	-5684
奇怪的	-5685
很明显	-5686
没事了	-5687
的一员	-5688
笔记本	-5689
詹姆斯	-5690
▁但我想	-5691
▁她知道	-5692
36	-5693
▁西	-5694
丑闻	-5695
分类	-5696
古怪	-5697
地铁	-5698
当初	-5699
心中	-5700
我将	-5701
挣扎	-5702
模仿	-5703
猴子	-5704
粮食	-5705
血压	-5706
▁另一	-5707
▁可以	-5708
产品的	-5709
到一个	-5710
吸引力	-5711
家公司	-5712
比赛中	-5713
的力量	-5714
的家庭	-5715
真是个	-5716
▁我也不	-5717
▁我非常	-5718
中的一个	-5719
这个世界	-5720
上车	-5721
不成	-5722
与你	-5723
之时	-5724
人才	-5725
作证	-5726
占领	-5727
危害	-5728
原子	-5729
外部	-5730
奖金	-5731
实习	-5732
就被	-5733
恐慌	-5734
星星	-5735
缺少	-5736
这只	-5737
▁你太	-5738
▁很快	-5739
▁这样	-5740
你们在	-5741
你们都	-5742
剩下的	-5743
小时后	-5744
我相信	-5745
指的是	-5746
有趣的	-5747
真的吗	-5748
▁别忘了	-5749
facebook	-5750
!”	-5751
▁学	-5752
不止	-5753
克兰	-5754
坏人	-5755
女子	-5756
想念	-5757
找人	-5758
月球	-5759
此次	-5760
高于	-5761
和我的	-5762
找一个	-5763
认识到	-5764
▁太棒了	-5765
一点都不	-5766
他将	-5767
充足	-5768
南非	-5769
大小	-5770
我从	-5771
排名	-5772
本人	-5773
流感	-5774
灵活	-5775
理查	-5776
自从	-5777
诅咒	-5778
还得	-5779
钓鱼	-5780
▁万一	-5781
▁凶手	-5782
分析了	-5783
动物园	-5784
去看看	-5785
合适的	-5786
城市的	-5787
怎么能	-5788
目的是	-5789
设计师	-5790
还需要	-5791
▁一定要	-5792
▁我开始	-5793
▁我担心	-5794
最重要的	-5795
这么认为	-5796
▁不管怎样	-5797
不来	-5798
五年	-5799
巴勒	-5800
德尔	-5801
德拉	-5802
打印	-5803
最为	-5804
的两	-5805
盒子	-5806
老是	-5807
肯尼	-5808
虐待	-5809
说吧	-5810
贫穷	-5811
酒精	-5812
ank	-5813
son	-5814
放弃了	-5815
服务器	-5816
什么也没	-5817
▁你说什么	-5818
▁如果有人	-5819
▁海	-5820
个忙	-5821
人体	-5822
功夫	-5823
卖了	-5824
商人	-5825
回了	-5826
想说	-5827
战场	-5828
手了	-5829
福特	-5830
花钱	-5831
西洋	-5832
这两	-5833
道的	-5834
▁利用	-5835
▁当地	-5836
▁很难	-5837
不是在	-5838
你最好	-5839
到这儿	-5840
制造业	-5841
好极了	-5842
沙发床	-5843
▁你说的	-5844
加利福尼亚	-5845
▁n	-5846
不受	-5847
以往	-5848
偷偷	-5849
全是	-5850
威士	-5851
封锁	-5852
巡逻	-5853
拿了	-5854
无限	-5855
殖民	-5856
活力	-5857
珠宝	-5858
生育	-5859
眼前	-5860
老天	-5861
谷类	-5862
不舒服	-5863
但他们	-5864
成功了	-5865
有许多	-5866
的市场	-5867
的理由	-5868
银行业	-5869
▁日	-5870
一根	-5871
主权	-5872
以此	-5873
冬天	-5874
冲动	-5875
史蒂	-5876
后者	-5877
回归	-5878
坏事	-5879
坚强	-5880
幸存	-5881
恒星	-5882
案例	-5883
神父	-5884
输了	-5885
▁相反	-5886
不确定	-5887
你可能	-5888
引起的	-5889
新加坡	-5890
有两个	-5891
的部分	-5892
看一下	-5893
看见了	-5894
和你一起	-5895
iP	-5896
▁4	-5897
一小	-5898
别想	-5899
和小	-5900
平安	-5901
找他	-5902
斯塔	-5903
曾在	-5904
标签	-5905
流血	-5906
游行	-5907
藏在	-5908
警卫	-5909
这对	-5910
骑士	-5911
▁我为	-5912
因为它	-5913
敢相信	-5914
的儿子	-5915
的选择	-5916
的那些	-5917
▁我去拿	-5918
知不知道	-5919
最好的朋友	-5920
▁半	-5921
一无	-5922
一顿	-5923
下班	-5924
主导	-5925
倒是	-5926
发送	-5927
受益	-5928
古代	-5929
地理	-5930
多样	-5931
对比	-5932
岩石	-5933
戴着	-5934
拿来	-5935
机的	-5936
深深	-5937
级的	-5938
罪行	-5939
试过	-5940
赋予	-5941
走路	-5942
重组	-5943
错的	-5944
面上	-5945
▁19	-5946
东西都	-5947
地球上	-5948
男人的	-5949
迈克尔	-5950
▁你让我	-5951
▁大多数	-5952
其中包括	-5953
▁我真的很	-5954
▁帮	-5955
他没	-5956
兔子	-5957
块钱	-5958
大战	-5959
州长	-5960
摇滚	-5961
改造	-5962
救护	-5963
歌手	-5964
沙滩	-5965
理智	-5966
色彩	-5967
赚钱	-5968
长得	-5969
面积	-5970
▁她不	-5971
倾向于	-5972
同时也	-5973
喜欢我	-5974
基督教	-5975
我就会	-5976
有任何	-5977
正常的	-5978
每天都	-5979
号州际公路	-5980
ry	-5981
▁何	-5982
三角	-5983
与其	-5984
亲眼	-5985
传递	-5986
但却	-5987
北方	-5988
周三	-5989
唱片	-5990
大选	-5991
存款	-5992
样本	-5993
的门	-5994
让您	-5995
闹钟	-5996
隔离	-5997
▁一次	-5998
会不会	-5999
好朋友	-6000
或者是	-6001
记得吗	-6002
你在一起	-6003
这个国家	-6004
叫什么名字	-6005
▁万	-6006
军官	-6007
到他	-6008
剧本	-6009
处在	-6010
她说	-6011
好运	-6012
得上	-6013
房里	-6014
斯蒂	-6015
波兰	-6016
率的	-6017
的吧	-6018
穿越	-6019
美食	-6020
获胜	-6021
车库	-6022
这部	-6023
高达	-6024
wit	-6025
▁但愿	-6026
全新的	-6027
实在是	-6028
对不对	-6029
把他的	-6030
研究所	-6031
▁另一个	-6032
打电话给	-6033
一路	-6034
主的	-6035
份额	-6036
午夜	-6037
变革	-6038
坏的	-6039
放了	-6040
淘汰	-6041
逃离	-6042
饭店	-6043
ity	-6044
▁10	-6045
▁一只	-6046
号公路	-6047
生命的	-6048
这个词	-6049
2004	-6050
▁好极了	-6051
sh	-6052
一颗	-6053
丧失	-6054
举动	-6055
争吵	-6056
侮辱	-6057
囚犯	-6058
强硬	-6059
扩展	-6060
有罪	-6061
生理	-6062
看出	-6063
精英	-6064
送你	-6065
通信	-6066
隐私	-6067
▁你再	-6068
不清楚	-6069
古老的	-6070
另一种	-6071
合理的	-6072
太阳能	-6073
找到他	-6074
提出的	-6075
查尔斯	-6076
看不到	-6077
▁怎么样	-6078
便利设施	-6079
已经开始	-6080
号高速公路	-6081
▁文	-6082
▁艾	-6083
上万	-6084
你却	-6085
写信	-6086
决赛	-6087
反复	-6088
史密	-6089
悲剧	-6090
最有	-6091
特定	-6092
疫苗	-6093
至关	-6094
迄今	-6095
迈阿	-6096
逃脱	-6097
防御	-6098
▁你刚	-6099
威士忌	-6100
我发誓	-6101
我明白	-6102
我父亲	-6103
我的人	-6104
我还没	-6105
普通的	-6106
更高的	-6107
点时间	-6108
表现出	-6109
▁我承认	-6110
做的事情	-6111
▁如果你能	-6112
ov	-6113
▁各	-6114
▁心	-6115
你把	-6116
你被	-6117
修理	-6118
形状	-6119
形的	-6120
放进	-6121
水里	-6122
注定	-6123
温和	-6124
烦恼	-6125
▁停下	-6126
▁几天	-6127
对自己	-6128
电视台	-6129
的技术	-6130
站起来	-6131
▁他们不	-6132
受欢迎的	-6133
研究人员	-6134
社会主义	-6135
▁j	-6136
▁唉	-6137
侵犯	-6138
光了	-6139
关门	-6140
吵架	-6141
娃娃	-6142
岁时	-6143
平常	-6144
扎菲	-6145
救助	-6146
无能	-6147
构建	-6148
水的	-6149
篮球	-6150
糊涂	-6151
缓解	-6152
衬衫	-6153
阁下	-6154
随意	-6155
马逊	-6156
all	-6157
▁可惜	-6158
主要的	-6159
你的人	-6160
原因是	-6161
天然气	-6162
的权利	-6163
的证据	-6164
错过了	-6165
问题吗	-6166
?。	-6167
se	-6168
偶然	-6169
品质	-6170
哈佛	-6171
想你	-6172
老妈	-6173
讽刺	-6174
雷德	-6175
上帝的	-6176
不要再	-6177
可以吗	-6178
带你去	-6179
我所知	-6180
服务的	-6181
身上的	-6182
都不能	-6183
做的就是	-6184
的可能性	-6185
这种情况	-6186
ib	-6187
▁6	-6188
▁G	-6189
一代	-6190
下车	-6191
东部	-6192
使命	-6193
减轻	-6194
分歧	-6195
埃尔	-6196
尝尝	-6197
村庄	-6198
来做	-6199
生了	-6200
的中	-6201
种子	-6202
约束	-6203
纳德	-6204
荒谬	-6205
观的	-6206
该死	-6207
谁是	-6208
透明	-6209
那次	-6210
香肠	-6211
▁哥们	-6212
也可能	-6213
也许是	-6214
对我说	-6215
什么地方	-6216
很快就会	-6217
我的生活	-6218
这么做的	-6219
这意味着	-6220
▁我也不知道	-6221
下载	-6222
传说	-6223
住宅	-6224
关联	-6225
受过	-6226
多大	-6227
客厅	-6228
巴士	-6229
引人	-6230
拉丁	-6231
提取	-6232
死刑	-6233
泽西	-6234
热带	-6235
管道	-6236
糖尿	-6237
英文	-6238
谈过	-6239
路口	-6240
▁反正	-6241
▁怎样	-6242
▁第三	-6243
只是想	-6244
稳定的	-6245
这东西	-6246
遇到了	-6247
额外的	-6248
▁他认为	-6249
▁我们该	-6250
另外一个	-6251
毫无疑问	-6252
事儿	-6253
保佑	-6254
又有	-6255
国债	-6256
大号	-6257
好几	-6258
康复	-6259
死人	-6260
礼服	-6261
胡子	-6262
诱惑	-6263
长了	-6264
降落	-6265
▁如此	-6266
▁接受	-6267
▁自从	-6268
▁那是	-6269
三个月	-6270
但我们	-6271
创始人	-6272
如果他	-6273
强烈的	-6274
很奇怪	-6275
我发现	-6276
英国的	-6277
谋杀案	-6278
▁你总是	-6279
▁几个月	-6280
▁我认识	-6281
一阵	-6282
也被	-6283
住房	-6284
使他	-6285
克服	-6286
军人	-6287
势力	-6288
吉姆	-6289
哈顿	-6290
善良	-6291
实力	-6292
常规	-6293
掩盖	-6294
替我	-6295
格里	-6296
洛克	-6297
测定	-6298
激光	-6299
自私	-6300
节日	-6301
辅助	-6302
香槟	-6303
▁你俩	-6304
主要是	-6305
受伤了	-6306
很喜欢	-6307
意义的	-6308
的人生	-6309
的危险	-6310
▁因为它	-6311
浪费时间	-6312
解决方案	-6313
▁,	-6314
▁伯	-6315
反而	-6316
奶酪	-6317
巨头	-6318
我叫	-6319
的可	-6320
直觉	-6321
稍微	-6322
糖果	-6323
辛苦	-6324
预订	-6325
▁出去	-6326
▁别说	-6327
▁新的	-6328
为他们	-6329
他不会	-6330
可能的	-6331
我还有	-6332
指挥官	-6333
被发现	-6334
问题了	-6335
现在开始	-6336
目前为止	-6337
oh	-6338
上说	-6339
北极	-6340
在内	-6341
大厅	-6342
层次	-6343
年里	-6344
弄到	-6345
得的	-6346
忙着	-6347
我这	-6348
未婚	-6349
糕点	-6350
纳税	-6351
菜单	-6352
通话	-6353
▁学生	-6354
一辈子	-6355
你真的	-6356
已经有	-6357
接受了	-6358
有人在	-6359
的唯一	-6360
▁你喜欢	-6361
不可能的	-6362
为例	-6363
仿佛	-6364
偷了	-6365
储蓄	-6366
关了	-6367
向他	-6368
大师	-6369
富裕	-6370
暴风	-6371
牛排	-6372
特里	-6373
生素	-6374
的说	-6375
祖母	-6376
终结	-6377
群岛	-6378
还真	-6379
这段	-6380
▁一名	-6381
▁国际	-6382
劳动力	-6383
商学院	-6384
曼哈顿	-6385
的作用	-6386
的历史	-6387
的最佳	-6388
我的孩子	-6389
气候变化	-6390
▁我想我们	-6391
利班	-6392
可惜	-6393
存储	-6394
成千	-6395
每人	-6396
毛病	-6397
没能	-6398
男生	-6399
百姓	-6400
谁会	-6401
▁像是	-6402
一下吗	-6403
五分钟	-6404
人类的	-6405
吉尼亚	-6406
我的手	-6407
打给你	-6408
拿到了	-6409
没那么	-6410
蛋白质	-6411
飞行员	-6412
这是什么	-6413
▁你还记得	-6414
包围	-6415
发育	-6416
大大	-6417
奢侈	-6418
季第	-6419
枪击	-6420
现有	-6421
男女	-6422
芯片	-6423
著名	-6424
说到	-6425
边界	-6426
验证	-6427
▁在她	-6428
▁简直	-6429
丹尼尔	-6430
他现在	-6431
企业家	-6432
和我说	-6433
在他们	-6434
在那边	-6435
失败了	-6436
学校的	-6437
技术的	-6438
接电话	-6439
有一种	-6440
赢得了	-6441
还不够	-6442
任何一个	-6443
▁怎么回事	-6444
▁爱	-6445
上过	-6446
亚历	-6447
会面	-6448
初步	-6449
原理	-6450
周四	-6451
性别	-6452
招聘	-6453
旅程	-6454
替你	-6455
有两	-6456
有事	-6457
治理	-6458
活跃	-6459
演唱	-6460
视觉	-6461
赌场	-6462
马丁	-6463
▁带着	-6464
▁我好	-6465
基金会	-6466
绝不会	-6467
那样做	-6468
▁在我的	-6469
佛罗里达	-6470
犯罪现场	-6471
一对	-6472
下滑	-6473
五十	-6474
会谈	-6475
你从	-6476
冒犯	-6477
军方	-6478
去拿	-6479
名称	-6480
味的	-6481
大气	-6482
平时	-6483
快了	-6484
情的	-6485
数十	-6486
碰我	-6487
肮脏	-6488
这也	-6489
青春	-6490
一直是	-6491
出现的	-6492
得不错	-6493
更喜欢	-6494
来看看	-6495
罗伯特	-6496
巴勒斯坦	-6497
▁如果不是	-6498
是怎么回事	-6499
越来越多的	-6500
▁7	-6501
上课	-6502
厌恶	-6503
喜剧	-6504
噩梦	-6505
孤单	-6506
早已	-6507
服用	-6508
火灾	-6509
特色	-6510
祝贺	-6511
罪恶	-6512
美式	-6513
转化	-6514
还好	-6515
销量	-6516
▁你用	-6517
▁我妈	-6518
了一场	-6519
共产党	-6520
她们的	-6521
根本不	-6522
特殊的	-6523
的那种	-6524
这本书	-6525
问题上	-6526
▁我把它	-6527
全套服务	-6528
这个地方	-6529
▁他们不会	-6530
ik	-6531
偶像	-6532
克尔	-6533
助手	-6534
她不	-6535
布尔	-6536
恶化	-6537
挂了	-6538
条约	-6539
残忍	-6540
泳池	-6541
派的	-6542
消灭	-6543
盈利	-6544
装修	-6545
负债	-6546
违约	-6547
▁这项	-6548
产生了	-6549
去参加	-6550
奥运会	-6551
是如此	-6552
普拉斯	-6553
迈阿密	-6554
▁别说了	-6555
▁我只是在	-6556
▁我知道我	-6557
修正	-6558
关节	-6559
发起	-6560
处境	-6561
布拉	-6562
平方	-6563
强壮	-6564
报导	-6565
挑选	-6566
掩护	-6567
是指	-6568
景点	-6569
期限	-6570
热爱	-6571
狂欢	-6572
白的	-6573
瞬间	-6574
见他	-6575
附加	-6576
▁他用	-6577
▁女士	-6578
了不起	-6579
他不是	-6580
以至于	-6581
卡扎菲	-6582
却没有	-6583
我儿子	-6584
睡着了	-6585
警察局	-6586
说他们	-6587
这样说	-6588
银行家	-6589
▁但是在	-6590
▁你不用	-6591
一个新的	-6592
不敢相信	-6593
▁你想让我	-6594
2.	-6595
he	-6596
▁利	-6597
▁被	-6598
与我	-6599
专用	-6600
丛林	-6601
前任	-6602
厨师	-6603
性格	-6604
总体	-6605
战胜	-6606
捐赠	-6607
搬到	-6608
犹豫	-6609
的信	-6610
糟了	-6611
警长	-6612
▁几个	-6613
▁总之	-6614
之前的	-6615
他就是	-6616
发动机	-6617
小时内	-6618
很棒的	-6619
我看到	-6620
时代的	-6621
时间的	-6622
明显的	-6623
生产商	-6624
的同时	-6625
看不见	-6626
给你看	-6627
菲尔德	-6628
这里是	-6629
▁其他人	-6630
▁我明天	-6631
我不喜欢	-6632
▁我不得不	-6633
witter	-6634
举措	-6635
但它	-6636
保健	-6637
列表	-6638
子女	-6639
将于	-6640
弄得	-6641
懂的	-6642
把车	-6643
放射	-6644
来临	-6645
罗拉	-6646
群众	-6647
西斯	-6648
ack	-6649
gdp	-6650
▁一天	-6651
▁你个	-6652
你以为	-6653
玩意儿	-6654
的态度	-6655
这也是	-6656
▁但是她	-6657
▁在那里	-6658
▁我不要	-6659
▁我很好	-6660
你不知道	-6661
发生的事	-6662
▁我不需要	-6663
一笔	-6664
会对	-6665
例外	-6666
受了	-6667
妥协	-6668
常见	-6669
意图	-6670
整合	-6671
桌上	-6672
欧式	-6673
歧视	-6674
用它	-6675
电站	-6676
的家	-6677
起床	-6678
那人	-6679
门的	-6680
麻醉	-6681
▁全球	-6682
▁把手	-6683
不出来	-6684
和美国	-6685
我们俩	-6686
▁她现在	-6687
▁我几乎	-6688
▁我早就	-6689
什么都不	-6690
航空公司	-6691
▁我们一起	-6692
从你	-6693
住宿	-6694
前就	-6695
加拉	-6696
因而	-6697
大臣	-6698
实的	-6699
市的	-6700
快要	-6701
我吧	-6702
星系	-6703
消耗	-6704
神奇	-6705
衡量	-6706
解除	-6707
说要	-6708
赛季	-6709
逐步	-6710
钢铁	-6711
钱了	-6712
阴谋	-6713
陛下	-6714
▁哪怕	-6715
▁我给	-6716
了一份	-6717
价值的	-6718
和免费	-6719
小女孩	-6720
感受到	-6721
监狱里	-6722
篇文章	-6723
▁先生们	-6724
▁当然可以	-6725
48	-6726
不信	-6727
不准	-6728
中学	-6729
假如	-6730
典型	-6731
包裹	-6732
周年	-6733
哭了	-6734
履行	-6735
称呼	-6736
考验	-6737
要比	-6738
走运	-6739
跑到	-6740
他们对	-6741
会让你	-6742
你父亲	-6743
原来的	-6744
只是在	-6745
在这种	-6746
坏消息	-6747
市场上	-6748
年以来	-6749
是时候	-6750
糖尿病	-6751
资本主义	-6752
▁你怎么能	-6753
▁如果没有	-6754
65	-6755
▁F	-6756
▁简	-6757
▁除	-6758
今日	-6759
他和	-6760
关上	-6761
再也	-6762
只想	-6763
困惑	-6764
尔特	-6765
幽灵	-6766
待遇	-6767
无需	-6768
昏迷	-6769
权威	-6770
毁掉	-6771
电台	-6772
瞧瞧	-6773
祖父	-6774
而被	-6775
膝盖	-6776
蒙特	-6777
警探	-6778
谈到	-6779
赞助	-6780
骚扰	-6781
ich	-6782
▁位于	-6783
▁打扰	-6784
▁明白	-6785
▁谢谢	-6786
一定很	-6787
弄清楚	-6788
我以前	-6789
是他们	-6790
的城市	-6791
的政府	-6792
适用于	-6793
对你来说	-6794
是我们的	-6795
google	-6796
0.	-6797
ht	-6798
。—	-6799
一头	-6800
之上	-6801
依旧	-6802
卖掉	-6803
墙上	-6804
室外	-6805
局势	-6806
市民	-6807
懂吗	-6808
杀我	-6809
步行	-6810
激素	-6811
真理	-6812
股权	-6813
证书	-6814
那晚	-6815
150	-6816
▁目的	-6817
▁这次	-6818
你爸爸	-6819
女孩子	-6820
就不能	-6821
是对的	-6822
的房间	-6823
社会的	-6824
还有一个	-6825
▁我觉得她	-6826
乐园	-6827
伪装	-6828
你可	-6829
供给	-6830
可笑	-6831
回复	-6832
开会	-6833
当代	-6834
打断	-6835
执政	-6836
承包	-6837
投降	-6838
拘留	-6839
挽救	-6840
放心	-6841
春天	-6842
极为	-6843
流浪	-6844
特勒	-6845
画面	-6846
百分	-6847
等了	-6848
镇上	-6849
产阶级	-6850
只不过	-6851
活动的	-6852
相当于	-6853
▁很显然	-6854
你是不是	-6855
我们知道	-6856
我告诉你	-6857
打电话给我	-6858
一趟	-6859
上下	-6860
东尼	-6861
光明	-6862
匹配	-6863
外界	-6864
少的	-6865
屠杀	-6866
州立	-6867
想像	-6868
收回	-6869
数的	-6870
有权	-6871
杰夫	-6872
欢乐	-6873
看作	-6874
短暂	-6875
老虎	-6876
航天	-6877
车站	-6878
这太	-6879
陷阱	-6880
领土	-6881
▁曾经	-6882
一分钟	-6883
不了的	-6884
不容易	-6885
健康的	-6886
出色的	-6887
是中国	-6888
有一点	-6889
▁你真是	-6890
▁几年前	-6891
▁只不过	-6892
告诉我的	-6893
我的工作	-6894
智能手机	-6895
▁因为如果	-6896
▁你知道我们	-6897
if	-6898
og	-6899
▁D	-6900
▁反	-6901
不算	-6902
书中	-6903
人吗	-6904
人工	-6905
余的	-6906
加剧	-6907
厚的	-6908
右边	-6909
已有	-6910
打扫	-6911
日记	-6912
海盗	-6913
潜力	-6914
监护	-6915
种种	-6916
胡说	-6917
证词	-6918
赞成	-6919
ess	-6920
▁st	-6921
▁来自	-6922
介绍了	-6923
会议上	-6924
取得了	-6925
很漂亮	-6926
我马上	-6927
把事情	-6928
朋友的	-6929
的一份	-6930
面临着	-6931
▁我只有	-6932
发展中国	-6933
接下来的	-6934
▁为什么你不	-6935
▁我觉得我们	-6936
不开	-6937
产权	-6938
价钱	-6939
低的	-6940
做些	-6941
创伤	-6942
卡斯	-6943
发作	-6944
古巴	-6945
多次	-6946
大多	-6947
容纳	-6948
差别	-6949
得知	-6950
我跟	-6951
所说	-6952
推销	-6953
源于	-6954
爱她	-6955
电信	-6956
祖先	-6957
落后	-6958
采购	-6959
镜子	-6960
马尔	-6961
▁第一	-6962
什么样	-6963
先生的	-6964
受够了	-6965
对中国	-6966
小小的	-6967
必须要	-6968
我很好	-6969
无所谓	-6970
选择了	-6971
100%	-6972
还有很多	-6973
那是什么	-6974
两者	-6975
人来	-6976
以防	-6977
医师	-6978
商场	-6979
商量	-6980
圣地	-6981
定期	-6982
容忍	-6983
干涉	-6984
我妈	-6985
换个	-6986
推迟	-6987
是无	-6988
泰国	-6989
白天	-6990
眼泪	-6991
私下	-6992
终止	-6993
讲述	-6994
▁把枪	-6995
帮助你	-6996
▁你刚刚	-6997
▁你愿意	-6998
▁我完全	-6999
成千上万	-7000
我只是想	-7001
这份工作	-7002
▁佩	-7003
▁待	-7004
凯特	-7005
合约	-7006
咱俩	-7007
在新	-7008
夸张	-7009
宇航	-7010
延长	-7011
房产	-7012
所得	-7013
接待	-7014
收获	-7015
月亮	-7016
校园	-7017
欲望	-7018
渐渐	-7019
猜测	-7020
硬币	-7021
要说	-7022
认知	-7023
评级	-7024
走过	-7025
跑步	-7026
通往	-7027
驱逐	-7028
ang	-7029
▁夫人	-7030
▁法律	-7031
不记得	-7032
了下来	-7033
你的手	-7034
到现在	-7035
吃东西	-7036
合伙人	-7037
我的车	-7038
电视上	-7039
组成的	-7040
解决了	-7041
进监狱	-7042
你说什么	-7043
新鲜水果	-7044
发生了什么事	-7045
▁唱	-7046
上司	-7047
他又	-7048
和大	-7049
四十	-7050
在外	-7051
失控	-7052
慷慨	-7053
接收	-7054
推测	-7055
深处	-7056
监测	-7057
结了	-7058
罗姆	-7059
自治	-7060
色情	-7061
营地	-7062
醒了	-7063
麦片	-7064
ant	-7065
···	-7066
▁听到	-7067
▁甚至	-7068
▁约翰	-7069
个星期	-7070
典型的	-7071
拿出来	-7072
是他的	-7073
的行动	-7074
自由的	-7075
2003	-7076
通货膨胀	-7077
一道	-7078
不堪	-7079
不通	-7080
中午	-7081
印刷	-7082
如同	-7083
对面	-7084
洛伊	-7085
特拉	-7086
的反	-7087
研发	-7088
订婚	-7089
诊所	-7090
读过	-7091
轮胎	-7092
▁关键	-7093
▁我太	-7094
开始的	-7095
我有点	-7096
是一名	-7097
氧化碳	-7098
的一面	-7099
▁如果您	-7100
只是一个	-7101
已经死了	-7102
我们一起	-7103
谷类食品	-7104
需要一个	-7105
▁我需要你	-7106
qu	-7107
▁借	-7108
亲戚	-7109
你才	-7110
做点	-7111
地毯	-7112
多谢	-7113
她要	-7114
对冲	-7115
急救	-7116
指南	-7117
提示	-7118
新生	-7119
条例	-7120
格拉	-7121
永恒	-7122
没用	-7123
河流	-7124
海湾	-7125
消化	-7126
物体	-7127
独特	-7128
着急	-7129
站着	-7130
等下	-7131
缅甸	-7132
调节	-7133
还想	-7134
难题	-7135
魔术	-7136
了她的	-7137
变得更	-7138
和其它	-7139
很开心	-7140
我今天	-7141
我的心	-7142
有关的	-7143
有力的	-7144
达到了	-7145
打个电话	-7146
看起来像	-7147
▁我知道这	-7148
▁我觉得他	-7149
ba	-7150
ct	-7151
▁七	-7152
▁八	-7153
▁单	-7154
▁双	-7155
不论	-7156
之类	-7157
作物	-7158
协定	-7159
喉咙	-7160
太过	-7161
布兰	-7162
布里	-7163
当他	-7164
戴上	-7165
披萨	-7166
收取	-7167
是为	-7168
楼下	-7169
求婚	-7170
温柔	-7171
罪名	-7172
货车	-7173
都将	-7174
ord	-7175
▁仅仅	-7176
▁令人	-7177
▁免费	-7178
▁可怜	-7179
与中国	-7180
交易所	-7181
会议室	-7182
反应堆	-7183
只需要	-7184
失业率	-7185
对我的	-7186
或其他	-7187
没想到	-7188
的一家	-7189
经纪人	-7190
那时候	-7191
▁就好像	-7192
▁我从未	-7193
▁我建议	-7194
我的意思	-7195
这是你的	-7196
38	-7197
▁9	-7198
▁同	-7199
业绩	-7200
两名	-7201
使人	-7202
别说	-7203
制裁	-7204
削弱	-7205
办理	-7206
卡特	-7207
发光	-7208
嘴里	-7209
妨碍	-7210
完毕	-7211
帐户	-7212
把握	-7213
投诉	-7214
残酷	-7215
猩猩	-7216
眼里	-7217
空的	-7218
而易	-7219
耶路	-7220
血迹	-7221
身材	-7222
▁你做	-7223
▁假设	-7224
嫌疑犯	-7225
存在着	-7226
星期五	-7227
母亲的	-7228
领域的	-7229
电话号码	-7230
我的意思是	-7231
31	-7232
▁仅	-7233
不明	-7234
丢下	-7235
乖乖	-7236
内衣	-7237
加工	-7238
品种	-7239
头痛	-7240
子和	-7241
审讯	-7242
左边	-7243
强劲	-7244
意料	-7245
折扣	-7246
撒冷	-7247
故障	-7248
昆虫	-7249
灵感	-7250
病例	-7251
的要	-7252
祝福	-7253
自愿	-7254
苏丹	-7255
莱斯	-7256
适用	-7257
选票	-7258
造的	-7259
那我	-7260
闭上	-7261
雅虎	-7262
坐下来	-7263
最新的	-7264
机构的	-7265
脑子里	-7266
还不错	-7267
还给我	-7268
造成了	-7269
▁一开始	-7270
▁洛杉矶	-7271
其中一个	-7272
▁他是一个	-7273
▁但是他们	-7274
▁r	-7275
一眼	-7276
个体	-7277
人权	-7278
令我	-7279
你吗	-7280
你将	-7281
克劳	-7282
合物	-7283
很高	-7284
必需	-7285
性能	-7286
意愿	-7287
才行	-7288
换了	-7289
时装	-7290
正当	-7291
火了	-7292
电动	-7293
眼神	-7294
突出	-7295
绅士	-7296
给人	-7297
起飞	-7298
黄色	-7299
▁天呐	-7300
▁给他	-7301
了起来	-7302
亚马逊	-7303
你到底	-7304
好多了	-7305
小伙子	-7306
就好像	-7307
我感觉	-7308
我有个	-7309
的事儿	-7310
的过程	-7311
结束后	-7312
超过了	-7313
这么大	-7314
这些事	-7315
▁他们有	-7316
不是一个	-7317
无烟客房	-7318
耶路撒冷	-7319
▁我不在乎	-7320
▁我从来没	-7321
,,	-7322
优雅	-7323
内裤	-7324
冰淇	-7325
击败	-7326
名声	-7327
峡谷	-7328
拿开	-7329
挖掘	-7330
日报	-7331
校长	-7332
水中	-7333
永久	-7334
琼斯	-7335
男的	-7336
目光	-7337
睡了	-7338
穿的	-7339
竞赛	-7340
维克	-7341
罢工	-7342
者在	-7343
肥胖	-7344
肩膀	-7345
被害	-7346
达尔	-7347
重量	-7348
金斯	-7349
ick	-7350
▁下午	-7351
不相信	-7352
克拉克	-7353
塔利班	-7354
嫌疑人	-7355
没办法	-7356
的产品	-7357
的味道	-7358
真的是	-7359
见过他	-7360
▁你还有	-7361
▁告诉她	-7362
▁我想她	-7363
三分之一	-7364
是什么时候	-7365
ma	-7366
上尉	-7367
不肯	-7368
使你	-7369
内在	-7370
卡拉	-7371
可疑	-7372
吉他	-7373
哈利	-7374
嘴唇	-7375
复活	-7376
家了	-7377
引用	-7378
性爱	-7379
我太	-7380
打我	-7381
抚养	-7382
海里	-7383
签字	-7384
管制	-7385
纳斯	-7386
线的	-7387
维多	-7388
考察	-7389
胸部	-7390
赶到	-7391
遵循	-7392
▁但那	-7393
▁直接	-7394
一小时	-7395
为一个	-7396
了一项	-7397
他自己	-7398
出一个	-7399
大西洋	-7400
很清楚	-7401
的事件	-7402
进来的	-7403
▁很多人	-7404
▁我说过	-7405
为什么会	-7406
你的名字	-7407
做些什么	-7408
和我一起	-7409
sp	-7410
▁真	-7411
一口	-7412
一堆	-7413
付费	-7414
傻了	-7415
克利	-7416
写着	-7417
加以	-7418
地板	-7419
岛屿	-7420
得起	-7421
感冒	-7422
报酬	-7423
无意	-7424
昨日	-7425
此类	-7426
热水	-7427
的光	-7428
祷告	-7429
纷纷	-7430
融合	-7431
语音	-7432
贝克	-7433
隧道	-7434
预定	-7435
ort	-7436
▁不久	-7437
不对劲	-7438
以前的	-7439
件事情	-7440
公司在	-7441
其中的	-7442
厌倦了	-7443
受害人	-7444
多久了	-7445
是怎样	-7446
核武器	-7447
研究的	-7448
那里的	-7449
都不是	-7450
项目的	-7451
▁你爸爸	-7452
▁怎么会	-7453
卫星电视	-7454
▁低	-7455
▁华	-7456
▁老	-7457
一刻	-7458
介入	-7459
倒霉	-7460
哭泣	-7461
处罚	-7462
夏季	-7463
大厦	-7464
大叫	-7465
头儿	-7466
我爸	-7467
教你	-7468
未经	-7469
流程	-7470
王国	-7471
等于	-7472
越多	-7473
这将	-7474
门票	-7475
鬼魂	-7476
▁它会	-7477
号出口	-7478
小孩子	-7479
惊人的	-7480
爱的人	-7481
理查德	-7482
留下的	-7483
的人民	-7484
英国人	-7485
这首歌	-7486
▁一定是	-7487
▁我了解	-7488
了自己的	-7489
因为我们	-7490
抵押贷款	-7491
▁分	-7492
▁水	-7493
▁洗	-7494
仍旧	-7495
动态	-7496
印尼	-7497
好玩	-7498
就去	-7499
带领	-7500
干杯	-7501
废物	-7502
我听	-7503
我最	-7504
护照	-7505
推广	-7506
描绘	-7507
旧的	-7508
暂停	-7509
有何	-7510
查查	-7511
治愈	-7512
洪水	-7513
清除	-7514
点钟	-7515
网页	-7516
荣耀	-7517
设定	-7518
驱动	-7519
高层	-7520
▁你叫	-7521
▁有关	-7522
▁比利	-7523
句话说	-7524
可以用	-7525
可怜的	-7526
就已经	-7527
有必要	-7528
有能力	-7529
法庭上	-7530
的关键	-7531
的调查	-7532
▁你说过	-7533
别无选择	-7534
发生什么	-7535
如果你想	-7536
就是为了	-7537
我很高兴	-7538
▁我不想再	-7539
▁你在干什么	-7540
▁8	-7541
▁I	-7542
▁切	-7543
上楼	-7544
下雨	-7545
不利	-7546
东方	-7547
中所	-7548
之夜	-7549
买家	-7550
冲浪	-7551
凯恩	-7552
出卖	-7553
刚好	-7554
即可	-7555
变暖	-7556
听证	-7557
员的	-7558
征服	-7559
德斯	-7560
我好	-7561
扩散	-7562
景观	-7563
格的	-7564
狮子	-7565
骨折	-7566
高了	-7567
做这个	-7568
和她的	-7569
很快就	-7570
政治家	-7571
▁因为在	-7572
▁我去找	-7573
▁让我们	-7574
基础设施	-7575
很长时间	-7576
欧式早餐	-7577
▁你只需要	-7578
们在	-7579
减肥	-7580
嘴巴	-7581
在上	-7582
坚信	-7583
寿命	-7584
将近	-7585
得要	-7586
情愿	-7587
打包	-7588
拍照	-7589
死在	-7590
潜水	-7591
米兰	-7592
辅导	-7593
迷人	-7594
饿了	-7595
鲍勃	-7596
int	-7597
▁立刻	-7598
冰淇淋	-7599
建筑物	-7600
心理学	-7601
救护车	-7602
更重要	-7603
杀了她	-7604
的增长	-7605
表现得	-7606
无论如何	-7607
越来越多	-7608
.....	-7609
▁我们认为	-7610
▁这是一个	-7611
▁–	-7612
▁丹	-7613
▁强	-7614
▁排	-7615
了那	-7616
加快	-7617
单一	-7618
呼叫	-7619
小了	-7620
年底	-7621
我走	-7622
抽屉	-7623
无比	-7624
此时	-7625
海上	-7626
的长	-7627
着她	-7628
西北	-7629
频率	-7630
鲨鱼	-7631
▁好吗	-7632
▁我早	-7633
不介意	-7634
个人的	-7635
人们对	-7636
外星人	-7637
宽敞的	-7638
我是你	-7639
我爸爸	-7640
摄像头	-7641
政策的	-7642
能让你	-7643
跟我来	-7644
▁冷静点	-7645
你有没有	-7646
拉斯维加斯	-7647
Facebook	-7648
▁所	-7649
了呢	-7650
删除	-7651
对外	-7652
当年	-7653
扭曲	-7654
搜寻	-7655
支援	-7656
是用	-7657
火星	-7658
犯人	-7659
独裁	-7660
看待	-7661
粒子	-7662
绳子	-7663
而在	-7664
节省	-7665
误解	-7666
贱人	-7667
车祸	-7668
近期	-7669
部件	-7670
▁安全	-7671
▁无法	-7672
也不要	-7673
但现在	-7674
你给我	-7675
参议院	-7676
又不是	-7677
吃晚饭	-7678
已成为	-7679
被视为	-7680
规定的	-7681
岁的时候	-7682
被认为是	-7683
一同	-7684
一瓶	-7685
下周	-7686
亚当	-7687
仪器	-7688
伤了	-7689
住手	-7690
你俩	-7691
党派	-7692
几十	-7693
创立	-7694
呆了	-7695
和人	-7696
尔曼	-7697
战术	-7698
手套	-7699
找的	-7700
新娘	-7701
沙拉	-7702
沙特	-7703
美人	-7704
美军	-7705
蜘蛛	-7706
认出	-7707
赞美	-7708
越好	-7709
过她	-7710
陈述	-7711
限于	-7712
频繁	-7713
:30	-7714
▁就是	-7715
一直都	-7716
他们不	-7717
他们了	-7718
他们将	-7719
国务院	-7720
太多的	-7721
很久了	-7722
是美国	-7723
有兴趣	-7724
的人口	-7725
的表现	-7726
这地方	-7727
部门的	-7728
▁听上去	-7729
▁把我的	-7730
你自己的	-7731
唯一一个	-7732
所作所为	-7733
▁今天早上	-7734
▁W	-7735
▁让	-7736
一番	-7737
不定	-7738
与众	-7739
优质	-7740
体会	-7741
大事	-7742
帐篷	-7743
开除	-7744
怪异	-7745
推翻	-7746
框架	-7747
残疾	-7748
泄露	-7749
皇后	-7750
论坛	-7751
说得	-7752
随之	-7753
随机	-7754
ows	-7755
▁我却	-7756
你和我	-7757
和你们	-7758
和别人	-7759
宝贝儿	-7760
很简单	-7761
棒极了	-7762
死定了	-7763
的比赛	-7764
的速度	-7765
的食物	-7766
类型的	-7767
肯尼迪	-7768
让我来	-7769
选择的	-7770
▁他总是	-7771
一个小时	-7772
可以通过	-7773
是这样的	-7774
解决问题	-7775
这个案子	-7776
▁李	-7777
▁萨	-7778
不许	-7779
乘坐	-7780
享有	-7781
付款	-7782
传送	-7783
位的	-7784
几百	-7785
制品	-7786
北约	-7787
同伴	-7788
城的	-7789
大胆	-7790
富翁	-7791
尔森	-7792
忏悔	-7793
执法	-7794
本土	-7795
灯光	-7796
焦点	-7797
的多	-7798
等级	-7799
而出	-7800
西装	-7801
顶级	-7802
预约	-7803
ian	-7804
▁全部	-7805
▁别让	-7806
▁基于	-7807
▁是他	-7808
不公平	-7809
公司和	-7810
千万别	-7811
可持续	-7812
导致了	-7813
并不能	-7814
我说了	-7815
摩托车	-7816
是不会	-7817
的政策	-7818
认识的	-7819
2001	-7820
大多数人	-7821
99	-7822
你再	-7823
去买	-7824
告知	-7825
姿势	-7826
嫁给	-7827
孤儿	-7828
差距	-7829
撤销	-7830
晚会	-7831
洞穴	-7832
称作	-7833
而又	-7834
认同	-7835
贿赂	-7836
远了	-7837
连锁	-7838
迟到	-7839
道上	-7840
阴影	-7841
▁法国	-7842
到你的	-7843
回到了	-7844
在家里	-7845
将成为	-7846
引起了	-7847
当我们	-7848
感恩节	-7849
独立的	-7850
的价值	-7851
需要我	-7852
▁她不会	-7853
▁有很多	-7854
▁你们知道	-7855
3.	-7856
▁原	-7857
为啥	-7858
从前	-7859
传奇	-7860
你家	-7861
偿还	-7862
共有	-7863
列车	-7864
友善	-7865
吃过	-7866
合成	-7867
喝点	-7868
宽恕	-7869
已在	-7870
幻觉	-7871
恶劣	-7872
文本	-7873
时我	-7874
杀掉	-7875
每晚	-7876
熨衣	-7877
被困	-7878
阳台	-7879
雷斯	-7880
▁不仅	-7881
▁你一	-7882
▁这家	-7883
一个大	-7884
参加了	-7885
史密斯	-7886
小心点	-7887
应该在	-7888
志愿者	-7889
拿走了	-7890
认识他	-7891
该怎么	-7892
这么快	-7893
进去了	-7894
▁他们把	-7895
▁你好吗	-7896
▁就像是	-7897
▁我不会	-7898
▁我其实	-7899
▁所有人	-7900
你的工作	-7901
你的时候	-7902
▁如果我能	-7903
▁(	-7904
▁L	-7905
▁家	-7906
了两	-7907
了它	-7908
会把	-7909
信念	-7910
化石	-7911
夏威	-7912
尊严	-7913
市区	-7914
扔掉	-7915
搞笑	-7916
晚点	-7917
本国	-7918
格鲁	-7919
波动	-7920
的无	-7921
的有	-7922
的神	-7923
第五	-7924
纳粹	-7925
要不	-7926
运转	-7927
迟了	-7928
迪斯	-7929
▁别人	-7930
▁只要	-7931
▁抓住	-7932
▁算了	-7933
下一步	-7934
不太好	-7935
凭什么	-7936
双人床	-7937
夏威夷	-7938
广泛的	-7939
我在想	-7940
用这个	-7941
的一名	-7942
▁他是我	-7943
我的名字	-7944
说了什么	-7945
都不知道	-7946
▁你知道么	-7947
34	-7948
la	-7949
▁沿	-7950
》,	-7951
你先	-7952
和解	-7953
固醇	-7954
局长	-7955
带回	-7956
弱点	-7957
律宾	-7958
打死	-7959
提及	-7960
搞得	-7961
旅途	-7962
来讲	-7963
波特	-7964
注入	-7965
线上	-7966
网球	-7967
过多	-7968
那张	-7969
金额	-7970
面具	-7971
高清	-7972
鸡尾	-7973
▁20	-7974
▁她能	-7975
不允许	-7976
什么人	-7977
可能有	-7978
向我们	-7979
在过去	-7980
对他的	-7981
屋子里	-7982
得不到	-7983
成员国	-7984
我们还	-7985
特定的	-7986
疯狂的	-7987
的活动	-7988
目前的	-7989
离开这	-7990
▁你要我	-7991
我知道你	-7992
所有这些	-7993
留在这里	-7994
▁当然不是	-7995
▁"	-7996
上演	-7997
什麽	-7998
准则	-7999
复仇	-8000
就该	-8001
当选	-8002
总结	-8003
户外	-8004
拳击	-8005
更是	-8006
汇报	-8007
烧烤	-8008
理性	-8009
的马	-8010
确切	-8011
离子	-8012
私营	-8013
精灵	-8014
维修	-8015
透过	-8016
阿里	-8017
▁以为	-8018
他知道	-8019
你好吗	-8020
留下了	-8021
菲律宾	-8022
起作用	-8023
这是在	-8024
▁她觉得	-8025
你有什么	-8026
其他地方	-8027
如果你不	-8028
我不得不	-8029
购物中心	-8030
▁因为你的	-8031
▁兰	-8032
▁毒	-8033
东北	-8034
东南	-8035
交道	-8036
他都	-8037
到此	-8038
单词	-8039
卖给	-8040
天文	-8041
她有	-8042
学金	-8043
巧合	-8044
巴斯	-8045
往前	-8046
按钮	-8047
撞击	-8048
是以	-8049
有意	-8050
机密	-8051
来得	-8052
牛肉	-8053
理事	-8054
由此	-8055
的呢	-8056
穷人	-8057
精心	-8058
翅膀	-8059
艾伦	-8060
表格	-8061
身后	-8062
轿车	-8063
过夜	-8064
这片	-8065
雅图	-8066
静脉	-8067
飓风	-8068
▁回家	-8069
▁她就	-8070
世纪的	-8071
尽全力	-8072
影响力	-8073
毕业生	-8074
这里有	-8075
▁我不管	-8076
▁我宁愿	-8077
采取行动	-8078
▁如果你的	-8079
▁我们还是	-8080
▁我向你保证	-8081
47	-8082
af	-8083
▁直	-8084
丢失	-8085
中毒	-8086
主角	-8087
书籍	-8088
了点	-8089
修建	-8090
出一	-8091
号的	-8092
司令	-8093
哈哈	-8094
存活	-8095
守护	-8096
完蛋	-8097
实质	-8098
宾馆	-8099
山脉	-8100
希尔	-8101
开启	-8102
房价	-8103
拉里	-8104
日程	-8105
氧气	-8106
泰勒	-8107
激进	-8108
特尔	-8109
的首	-8110
窗口	-8111
纯粹	-8112
而我	-8113
艾滋	-8114
起码	-8115
ong	-8116
▁帮助	-8117
▁是否	-8118
增长的	-8119
大学生	-8120
开始吧	-8121
我们没	-8122
现代化	-8123
美国和	-8124
说实话	-8125
发达国家	-8126
只是为了	-8127
按摩浴缸	-8128
维多利亚	-8129
一轮	-8130
了这	-8131
你别	-8132
击中	-8133
动荡	-8134
发型	-8135
可信	-8136
吉米	-8137
坐牢	-8138
坚定	-8139
她想	-8140
安妮	-8141
少女	-8142
指令	-8143
提名	-8144
杀的	-8145
次了	-8146
眼光	-8147
紧密	-8148
线路	-8149
艘船	-8150
迪克	-8151
雇主	-8152
196	-8153
▁三个	-8154
▁于是	-8155
▁再来	-8156
▁法官	-8157
了许多	-8158
事务所	-8159
他们说	-8160
份工作	-8161
医学院	-8162
原谅我	-8163
巴拉克	-8164
您可以	-8165
我没事	-8166
拥有的	-8167
控制的	-8168
熨衣板	-8169
的事业	-8170
的话题	-8171
的银行	-8172
艺术品	-8173
被认为	-8174
鸡尾酒	-8175
▁我也想	-8176
▁是一个	-8177
什么样的	-8178
任何事情	-8179
休息一下	-8180
我们只是	-8181
的那个人	-8182
职业生涯	-8183
准备好了吗	-8184
95	-8185
▁v	-8186
争夺	-8187
人为	-8188
他去	-8189
会说	-8190
做梦	-8191
分为	-8192
厂商	-8193
吃点	-8194
回收	-8195
太久	-8196
她还	-8197
审计	-8198
室的	-8199
尽的	-8200
山谷	-8201
微型	-8202
德华	-8203
数以	-8204
施工	-8205
无力	-8206
望远	-8207
死吧	-8208
每位	-8209
气球	-8210
氛围	-8211
烹饪	-8212
爱他	-8213
目录	-8214
破裂	-8215
税务	-8216
舌头	-8217
节奏	-8218
萧条	-8219
著作	-8220
薪酬	-8221
解开	-8222
诗歌	-8223
过吗	-8224
▁伦敦	-8225
▁偶尔	-8226
▁穿过	-8227
上帝啊	-8228
使他们	-8229
她已经	-8230
看见你	-8231
经历过	-8232
老朋友	-8233
我不需要	-8234
我真的很	-8235
提供免费	-8236
▁因为我想	-8237
▁我可不会	-8238
▁我可不是	-8239
iphone	-8240
▁1	-8241
▁凡	-8242
一架	-8243
一面	-8244
专心	-8245
别墅	-8246
史上	-8247
在说	-8248
巴克	-8249
幕后	-8250
情局	-8251
执照	-8252
数目	-8253
机遇	-8254
树木	-8255
纹身	-8256
老头	-8257
要你	-8258
赛车	-8259
违法	-8260
送去	-8261
部署	-8262
金发	-8263
难民	-8264
▁女孩	-8265
▁神父	-8266
不适合	-8267
亚特兰	-8268
会导致	-8269
各种各	-8270
在伦敦	-8271
建立了	-8272
我的错	-8273
数百万	-8274
的观点	-8275
这事儿	-8276
▁他应该	-8277
一个女人	-8278
全球经济	-8279
这么说的	-8280
▁你们不能	-8281
▁我以为你	-8282
▁无论如何	-8283
▁E	-8284
▁现	-8285
一日	-8286
下水	-8287
中被	-8288
了的	-8289
利息	-8290
前来	-8291
单纯	-8292
可见	-8293
同步	-8294
哈里	-8295
噪音	-8296
复兴	-8297
孙子	-8298
带我	-8299
打的	-8300
把戏	-8301
数千	-8302
文档	-8303
老了	-8304
职务	-8305
蜡烛	-8306
订单	-8307
认定	-8308
赌博	-8309
迎接	-8310
项链	-8311
高盛	-8312
ark	-8313
▁你妈	-8314
一点儿	-8315
一起来	-8316
像这样	-8317
对这个	-8318
怀孕了	-8319
我从没	-8320
橄榄球	-8321
潜在的	-8322
的父亲	-8323
▁她不是	-8324
他们已经	-8325
共和党人	-8326
心理医生	-8327
根本没有	-8328
▁如果你要	-8329
▁我是不是	-8330
▁你在说什么	-8331
一百	-8332
不合	-8333
与他	-8334
决议	-8335
分辨	-8336
到那	-8337
半岛	-8338
周前	-8339
哪怕	-8340
喝杯	-8341
她吗	-8342
它了	-8343
市政	-8344
心跳	-8345
恰恰	-8346
披露	-8347
无效	-8348
极度	-8349
柠檬	-8350
漏洞	-8351
漫画	-8352
遇见	-8353
都行	-8354
▁住手	-8355
▁大卫	-8356
▁太阳	-8357
▁客房	-8358
▁想象	-8359
▁我原	-8360
▁每位	-8361
一整天	-8362
不同意	-8363
他可以	-8364
但是他	-8365
取消了	-8366
听我的	-8367
好主意	-8368
完全是	-8369
把所有	-8370
支持者	-8371
无线电	-8372
日本的	-8373
是一家	-8374
的不是	-8375
的人物	-8376
的压力	-8377
的路上	-8378
能看到	-8379
自以为	-8380
▁他一直	-8381
▁你不要	-8382
▁我帮你	-8383
我们还是	-8384
▁告诉他们	-8385
▁你知不知道	-8386
▁冰	-8387
▁点	-8388
不下	-8389
今后	-8390
便是	-8391
可乐	-8392
天生	-8393
好点	-8394
它能	-8395
官僚	-8396
巨额	-8397
平面	-8398
引爆	-8399
怪的	-8400
才华	-8401
更改	-8402
每日	-8403
的后	-8404
盟友	-8405
绘画	-8406
融入	-8407
赞同	-8408
这块	-8409
▁别动	-8410
▁彼得	-8411
了一切	-8412
会怎样	-8413
到我的	-8414
半小时	-8415
听上去	-8416
回去了	-8417
带走了	-8418
的任务	-8419
聪明的	-8420
▁即使是	-8421
▁如果不	-8422
一无所知	-8423
二氧化碳	-8424
你的生活	-8425
办公室里	-8426
知道我们	-8427
te	-8428
▁长	-8429
万人	-8430
了啊	-8431
半夜	-8432
单人	-8433
召开	-8434
干脆	-8435
手枪	-8436
杂种	-8437
根廷	-8438
气味	-8439
灌木	-8440
留意	-8441
约瑟	-8442
罗德	-8443
美妙	-8444
艾米	-8445
菲尔	-8446
鉴定	-8447
ine	-8448
▁反对	-8449
▁当心	-8450
▁没错	-8451
▁直到	-8452
▁香港	-8453
专注于	-8454
卫生间	-8455
挺好的	-8456
是否有	-8457
的一点	-8458
的报告	-8459
的设计	-8460
第一天	-8461
身份证	-8462
▁你准备	-8463
▁其他的	-8464
▁她肯定	-8465
他们可以	-8466
做的一切	-8467
德克萨斯	-8468
酒店位于	-8469
▁因为我是	-8470
发展中国家	-8471
并不意味着	-8472
indows	-8473
▁已	-8474
之路	-8475
作了	-8476
凶器	-8477
变为	-8478
外表	-8479
好转	-8480
学到	-8481
室友	-8482
小狗	-8483
巫师	-8484
年中	-8485
并将	-8486
影院	-8487
很小	-8488
很长	-8489
惊奇	-8490
捕捉	-8491
晓得	-8492
标牌	-8493
此刻	-8494
步骤	-8495
界的	-8496
的歌	-8497
窃听	-8498
要有	-8499
要来	-8500
话了	-8501
诞生	-8502
隔壁	-8503
▁你将	-8504
▁我问	-8505
▁通常	-8506
严格的	-8507
感谢你	-8508
我们了	-8509
拒绝了	-8510
是没有	-8511
的最新	-8512
葡萄牙	-8513
运营商	-8514
飞机上	-8515
▁不是我	-8516
▁他喜欢	-8517
▁当然是	-8518
▁我去了	-8519
告诉我你	-8520
国际机场	-8521
▁所以我想	-8522
▁换句话说	-8523
▁世	-8524
▁探	-8525
储存	-8526
典礼	-8527
冬季	-8528
分的	-8529
加大	-8530
回避	-8531
回顾	-8532
地里	-8533
坟墓	-8534
夹克	-8535
实用	-8536
就此	-8537
巴巴	-8538
引入	-8539
当天	-8540
指引	-8541
指甲	-8542
揭示	-8543
格斯	-8544
玩得	-8545
看得	-8546
眼中	-8547
而去	-8548
胞胎	-8549
蠢货	-8550
见识	-8551
▁你瞧	-8552
▁北京	-8553
一定的	-8554
两个月	-8555
了出来	-8556
从这里	-8557
办公桌	-8558
在纽约	-8559
就知道	-8560
我也会	-8561
无辜的	-8562
是多么	-8563
比我们	-8564
的最大	-8565
科医生	-8566
西雅图	-8567
还记得	-8568
▁他们在	-8569
▁当他们	-8570
▁我在这	-8571
▁我不确定	-8572
▁我敢肯定	-8573
▁我是一个	-8574
你在说什么	-8575
▁能	-8576
了对	-8577
从他	-8578
你太	-8579
傲慢	-8580
内疚	-8581
再生	-8582
写道	-8583
前途	-8584
哪种	-8585
商标	-8586
善于	-8587
圣节	-8588
害的	-8589
察觉	-8590
就象	-8591
影像	-8592
感应	-8593
我先	-8594
所未	-8595
授予	-8596
放缓	-8597
智力	-8598
本文	-8599
术语	-8600
水和	-8601
活儿	-8602
皮特	-8603
盘子	-8604
看他	-8605
窒息	-8606
签证	-8607
自主	-8608
船员	-8609
见证	-8610
设想	-8611
说道	-8612
超市	-8613
还将	-8614
选项	-8615
长达	-8616
集合	-8617
▁co	-8618
▁他一	-8619
从一个	-8620
你的车	-8621
你说过	-8622
做不到	-8623
在地上	-8624
带我去	-8625
成这样	-8626
望远镜	-8627
来找我	-8628
没见过	-8629
然后就	-8630
的事物	-8631
的变化	-8632
的迹象	-8633
象征性	-8634
领导者	-8635
▁我朋友	-8636
到处都是	-8637
建立一个	-8638
我就知道	-8639
▁尽管如此	-8640
▁所有人都	-8641
▁据我所知	-8642
▁H	-8643
上诉	-8644
为其	-8645
主流	-8646
也好	-8647
人说	-8648
但不	-8649
全体	-8650
共识	-8651
出庭	-8652
向她	-8653
大门	-8654
定价	-8655
客观	-8656
密度	-8657
小鬼	-8658
弟兄	-8659
当做	-8660
我用	-8661
揭露	-8662
朝着	-8663
机票	-8664
瀑布	-8665
玩了	-8666
疗效	-8667
破了	-8668
福德	-8669
船只	-8670
被抓	-8671
裁决	-8672
都市	-8673
香烟	-8674
ros	-8675
▁台湾	-8676
▁回去	-8677
▁战争	-8678
了一条	-8679
你一定	-8680
决定了	-8681
完整的	-8682
文化的	-8683
更好地	-8684
看电视	-8685
看看你	-8686
▁别让我	-8687
▁我并不	-8688
不可避免	-8689
因为这个	-8690
看看这个	-8691
那个女孩	-8692
44	-8693
uc	-8694
▁埃	-8695
▁弄	-8696
▁曼	-8697
仁慈	-8698
傻子	-8699
公交	-8700
发放	-8701
布置	-8702
弗里	-8703
恐吓	-8704
拥挤	-8705
损坏	-8706
更快	-8707
有几	-8708
村民	-8709
植入	-8710
此前	-8711
波斯	-8712
注视	-8713
玩家	-8714
荒唐	-8715
莎拉	-8716
蜜蜂	-8717
都想	-8718
门外	-8719
降临	-8720
▁去吧	-8721
▁学习	-8722
▁经过	-8723
为基础	-8724
他们也	-8725
做到了	-8726
克林顿	-8727
和晚餐	-8728
和社会	-8729
在内的	-8730
失踪了	-8731
实在太	-8732
庞大的	-8733
形成的	-8734
总是在	-8735
我就要	-8736
火车站	-8737
进来了	-8738
▁199	-8739
▁你不该	-8740
▁可能会	-8741
▁我们很	-8742
他的名字	-8743
以及其他	-8744
保险公司	-8745
别的地方	-8746
美国政府	-8747
联邦调查	-8748
CE	-8749
▁等	-8750
一体	-8751
下手	-8752
书的	-8753
互动	-8754
亲近	-8755
休假	-8756
保释	-8757
卑鄙	-8758
占有	-8759
和谁	-8760
场地	-8761
大地	-8762
大海	-8763
守卫	-8764
家乡	-8765
山姆	-8766
床单	-8767
情节	-8768
枕头	-8769
样品	-8770
欢呼	-8771
真心	-8772
突击	-8773
超出	-8774
这人	-8775
远程	-8776
通行	-8777
金正	-8778
链接	-8779
10%	-8780
600	-8781
▁今早	-8782
与其他	-8783
丰盛的	-8784
丽莎白	-8785
你这么	-8786
总统的	-8787
我们再	-8788
打交道	-8789
有利于	-8790
▁以色列	-8791
▁你在这	-8792
▁所有这些	-8793
很大程度上	-8794
39	-8795
事先	-8796
切除	-8797
卧底	-8798
同盟	-8799
含义	-8800
坏蛋	-8801
垄断	-8802
复印	-8803
头部	-8804
宁静	-8805
年内	-8806
当今	-8807
悄悄	-8808
拖延	-8809
拼命	-8810
接管	-8811
欺负	-8812
液体	-8813
理工	-8814
睡着	-8815
职员	-8816
见见	-8817
谁的	-8818
逃走	-8819
▁技术	-8820
▁现代	-8821
▁科学	-8822
了一点	-8823
了这些	-8824
事件的	-8825
他就会	-8826
创造了	-8827
在学校	-8828
希望我	-8829
影响到	-8830
我要你	-8831
最高的	-8832
清楚了	-8833
生物学	-8834
的努力	-8835
许可证	-8836
▁他怎么	-8837
▁但我不	-8838
▁你也许	-8839
▁我之前	-8840
为您提供	-8841
就是一个	-8842
有线电视	-8843
▁你不应该	-8844
▁如果我不	-8845
▁我都不知道	-8846
▁卢	-8847
▁整	-8848
丹麦	-8849
传真	-8850
债权	-8851
六个	-8852
叛徒	-8853
口音	-8854
可口	-8855
太大	-8856
将他	-8857
延伸	-8858
性质	-8859
抵制	-8860
控告	-8861
效益	-8862
有空	-8863
杀他	-8864
没说	-8865
测验	-8866
清洗	-8867
火焰	-8868
热衷	-8869
离我	-8870
箱里	-8871
繁殖	-8872
纠纷	-8873
给您	-8874
缺点	-8875
蔓延	-8876
要把	-8877
要用	-8878
视线	-8879
评委	-8880
走上	-8881
身的	-8882
轻轻	-8883
这间	-8884
▁从我	-8885
▁得了	-8886
他们能	-8887
友好的	-8888
妈妈的	-8889
导致的	-8890
我非常	-8891
核电站	-8892
活下去	-8893
的人的	-8894
的企业	-8895
的小孩	-8896
的秘密	-8897
的要求	-8898
目的地	-8899
▁不是吧	-8900
▁你只能	-8901
▁得了吧	-8902
一个问题	-8903
▁他们没有	-8904
英寸液晶电视	-8905
▁抓	-8906
▁相	-8907
下半	-8908
中华	-8909
们都	-8910
传输	-8911
传达	-8912
你妈	-8913
做完	-8914
做饭	-8915
全家	-8916
再去	-8917
反射	-8918
和水	-8919
坦诚	-8920
多元	-8921
学科	-8922
它就	-8923
宝石	-8924
小丑	-8925
尔摩	-8926
帅哥	-8927
曾是	-8928
登陆	-8929
知情	-8930
等的	-8931
能的	-8932
这笔	-8933
违背	-8934
送给	-8935
ist	-8936
也一样	-8937
他们有	-8938
以上的	-8939
处理的	-8940
大使馆	-8941
我的小	-8942
我记得	-8943
昂贵的	-8944
没人会	-8945
没必要	-8946
的电影	-8947
看到他	-8948
等不及	-8949
该地区	-8950
跟你们	-8951
▁她已经	-8952
▁我们走	-8953
▁把这个	-8954
不仅仅是	-8955
做点什么	-8956
检查一下	-8957
离开这儿	-8958
▁另	-8959
▁尤	-8960
▁穆	-8961
▁管	-8962
一时	-8963
人力	-8964
低估	-8965
古典	-8966
君子	-8967
好些	-8968
山上	-8969
帕特	-8970
患有	-8971
批判	-8972
收缩	-8973
时会	-8974
末日	-8975
民间	-8976
狂热	-8977
瑟琳	-8978
用途	-8979
留给	-8980
监禁	-8981
着陆	-8982
秋天	-8983
种类	-8984
行程	-8985
被你	-8986
西兰	-8987
触摸	-8988
诗人	-8989
那会	-8990
非凡	-8991
香水	-8992
鼓舞	-8993
▁不了	-8994
▁停止	-8995
▁参加	-8996
▁才能	-8997
▁承认	-8998
和一些	-8999
在未来	-9000
对这些	-9001
就是了	-9002
就是要	-9003
我都会	-9004
最喜欢	-9005
的一半	-9006
的地位	-9007
的说法	-9008
网站上	-9009
过一个	-9010
▁现在他	-9011
改变主意	-9012
该怎么办	-9013
▁我敢打赌	-9014
......。	-9015
ox	-9016
不当	-9017
他所	-9018
包里	-9019
半个	-9020
参赛	-9021
又要	-9022
右侧	-9023
命名	-9024
复合	-9025
好看	-9026
富人	-9027
就越	-9028
延续	-9029
想让	-9030
数百	-9031
无视	-9032
是说	-9033
晚宴	-9034
景色	-9035
海边	-9036
环节	-9037
生病	-9038
皇帝	-9039
莱恩	-9040
轻微	-9041
面部	-9042
▁相信	-9043
▁究竟	-9044
以来的	-9045
十分钟	-9046
发出的	-9047
和中国	-9048
我是在	-9049
服务员	-9050
欧洲的	-9051
的管理	-9052
相信他	-9053
看我的	-9054
致命的	-9055
行业的	-9056
证明了	-9057
▁不会的	-9058
▁世界上	-9059
▁你看见	-9060
我一直在	-9061
的大部分	-9062
▁因为我不	-9063
▁我看到了	-9064
给我打电话	-9065
▁我从来没有	-9066
▁N	-9067
▁正	-9068
不说	-9069
予以	-9070
亮的	-9071
人心	-9072
住的	-9073
受损	-9074
只好	-9075
后就	-9076
奶油	-9077
姓名	-9078
子宫	-9079
封闭	-9080
排队	-9081
接手	-9082
撤离	-9083
有毒	-9084
本事	-9085
比这	-9086
毛巾	-9087
洛斯	-9088
童年	-9089
萨克	-9090
蒙古	-9091
观光	-9092
轰炸	-9093
这可	-9094
und	-9095
▁ch	-9096
▁我已	-9097
不停地	-9098
不再是	-9099
你不想	-9100
加入了	-9101
宗商品	-9102
我讨厌	-9103
痛苦的	-9104
的角色	-9105
说不定	-9106
转移到	-9107
这么久	-9108
▁华盛顿	-9109
▁我不该	-9110
一个孩子	-9111
对冲基金	-9112
已经成为	-9113
▁你也知道	-9114
▁你还好吗	-9115
某种程度上	-9116
1,	-9117
az	-9118
儿的	-9119
内阁	-9120
切断	-9121
只需	-9122
品尝	-9123
坦克	-9124
宽松	-9125
山大	-9126
巨人	-9127
弱的	-9128
强度	-9129
惊人	-9130
房租	-9131
拉的	-9132
无处	-9133
比起	-9134
滥用	-9135
版的	-9136
球迷	-9137
直播	-9138
私有	-9139
等候	-9140
联赛	-9141
脚趾	-9142
自在	-9143
苏珊	-9144
菲利	-9145
见鬼	-9146
视角	-9147
跨国	-9148
▁从那	-9149
▁医院	-9150
▁每人	-9151
不在场	-9152
不存在	-9153
养老金	-9154
出去的	-9155
化合物	-9156
合法的	-9157
周围的	-9158
在这些	-9159
场比赛	-9160
奖学金	-9161
委托人	-9162
小家伙	-9163
我当然	-9164
找到她	-9165
把那个	-9166
是这个	-9167
研究了	-9168
都已经	-9169
▁她没有	-9170
▁差不多	-9171
▁我们先	-9172
▁我是来	-9173
今天早上	-9174
付出代价	-9175
你能不能	-9176
几个星期	-9177
国家安全	-9178
在我身上	-9179
希望你能	-9180
的人来说	-9181
的基础上	-9182
▁你怎么知道	-9183
33	-9184
一夜	-9185
不应	-9186
为之	-9187
协商	-9188
双重	-9189
召唤	-9190
可归	-9191
喜悦	-9192
土豆	-9193
尾巴	-9194
应急	-9195
忧虑	-9196
怀念	-9197
急性	-9198
挺好	-9199
放手	-9200
教室	-9201
旁观	-9202
无名	-9203
民意	-9204
泄漏	-9205
法语	-9206
注重	-9207
瑞克	-9208
着迷	-9209
罗伊	-9210
走人	-9211
走去	-9212
跟随	-9213
追溯	-9214
面向	-9215
鸡肉	-9216
ass	-9217
mer	-9218
下面的	-9219
什么也	-9220
减少了	-9221
反对派	-9222
在上面	-9223
我女儿	-9224
我完全	-9225
特先生	-9226
甚至是	-9227
董事长	-9228
过你的	-9229
这个了	-9230
▁上个月	-9231
▁就为了	-9232
▁我们俩	-9233
任何地方	-9234
很有意思	-9235
让我看看	-9236
▁但我觉得	-9237
变得越来越	-9238
55	-9239
au	-9240
▁九	-9241
▁年	-9242
中文	-9243
丽的	-9244
二的	-9245
充电	-9246
再度	-9247
出手	-9248
后退	-9249
听你	-9250
喜爱	-9251
好象	-9252
宁可	-9253
差劲	-9254
布雷	-9255
开设	-9256
急诊	-9257
挪威	-9258
新年	-9259
施加	-9260
曝光	-9261
本月	-9262
渠道	-9263
甜点	-9264
笑容	-9265
紧要	-9266
羞辱	-9267
被打	-9268
要花	-9269
豁免	-9270
走走	-9271
转到	-9272
酗酒	-9273
闯入	-9274
难忘	-9275
饥饿	-9276
高等	-9277
▁像个	-9278
之研究	-9279
些东西	-9280
但没有	-9281
你不用	-9282
你们能	-9283
像一个	-9284
几年前	-9285
各地的	-9286
形成了	-9287
成一个	-9288
我会的	-9289
的时刻	-9290
的特点	-9291
类似于	-9292
红色的	-9293
表现的	-9294
解释了	-9295
这可是	-9296
▁他正在	-9297
▁你到底	-9298
▁你好像	-9299
▁你这么	-9300
▁唯一的	-9301
▁我确实	-9302
你就可以	-9303
弗吉尼亚	-9304
的时候了	-9305
经济衰退	-9306
▁我在这里	-9307
85	-9308
ky	-9309
pa	-9310
▁佛	-9311
▁受	-9312
▁愿	-9313
▁梅	-9314
》。	-9315
你跟	-9316
呕吐	-9317
场面	-9318
失误	-9319
待会	-9320
性命	-9321
扔到	-9322
接吻	-9323
掩饰	-9324
教我	-9325
新型	-9326
是大	-9327
查出	-9328
格尔	-9329
欺诈	-9330
游览	-9331
的电	-9332
神话	-9333
禁令	-9334
组建	-9335
给出	-9336
缩小	-9337
草原	-9338
蝴蝶	-9339
谢了	-9340
贵族	-9341
走私	-9342
避孕	-9343
郊区	-9344
里去	-9345
闪电	-9346
领带	-9347
old	-9348
上个月	-9349
不仅仅	-9350
也无法	-9351
你也是	-9352
当然了	-9353
我看见	-9354
搞定了	-9355
是一场	-9356
是可以	-9357
显示出	-9358
现在我	-9359
的中心	-9360
的人类	-9361
第三个	-9362
见过你	-9363
说真的	-9364
财政部	-9365
还是个	-9366
还有个	-9367
阿根廷	-9368
2013	-9369
▁你就会	-9370
▁你记得	-9371
▁如果这	-9372
你是怎么	-9373
做好准备	-9374
发现自己	-9375
和你谈谈	-9376
就可以了	-9377
新兴市场	-9378
▁因为你是	-9379
▁你什么意思	-9380
▁女士们先生们	-9381
高速互联网接入	-9382
49	-9383
▁嘘	-9384
▁怪	-9385
一看	-9386
不已	-9387
业余	-9388
亏损	-9389
他来	-9390
伦斯	-9391
修好	-9392
公务	-9393
再多	-9394
出局	-9395
匹马	-9396
升值	-9397
召集	-9398
天呐	-9399
安置	-9400
尽头	-9401
左侧	-9402
找了	-9403
有三	-9404
来个	-9405
每月	-9406
浑身	-9407
演说	-9408
点燃	-9409
珍妮	-9410
画的	-9411
肝脏	-9412
脚步	-9413
致的	-9414
花生	-9415
西西	-9416
诡异	-9417
过渡	-9418
这话	-9419
迷失	-9420
适当	-9421
避开	-9422
部位	-9423
酒廊	-9424
CEO	-9425
▁你所	-9426
▁地球	-9427
▁毕竟	-9428
上大学	-9429
他是谁	-9430
你们是	-9431
做一些	-9432
具尸体	-9433
及其他	-9434
吓坏了	-9435
成功地	-9436
时间来	-9437
杀人犯	-9438
沃尔玛	-9439
的员工	-9440
▁不需要	-9441
▁我今晚	-9442
▁我叫你	-9443
住在这里	-9444
四分之一	-9445
热华夫饼	-9446
还有其他	-9447
▁拜	-9448
不顾	-9449
仅此	-9450
仲裁	-9451
共进	-9452
利桑	-9453
向上	-9454
天天	-9455
好过	-9456
寂寞	-9457
小屋	-9458
就把	-9459
尼的	-9460
延迟	-9461
忘掉	-9462
快去	-9463
想在	-9464
打仗	-9465
投机	-9466
梦中	-9467
此举	-9468
生效	-9469
着想	-9470
符号	-9471
紧紧	-9472
罕默	-9473
罗宾	-9474
防护	-9475
雷达	-9476
高校	-9477
ohn	-9478
▁他将	-9479
▁尸体	-9480
▁站在	-9481
▁至于	-9482
一下吧	-9483
取得的	-9484
喝醉了	-9485
大号床	-9486
她是个	-9487
就是你	-9488
我丈夫	-9489
我是否	-9490
时间和	-9491
有点儿	-9492
激烈的	-9493
然后再	-9494
病人的	-9495
的人了	-9496
的其他	-9497
目击者	-9498
觉得很	-9499
那孩子	-9500
那是个	-9501
都是在	-9502
酒店内	-9503
零售商	-9504
马克思	-9505
roup	-9506
▁你这样	-9507
▁我昨晚	-9508
▁我马上	-9509
中产阶级	-9510
他们就会	-9511
▁我不觉得	-9512
之间的关系	-9513
发生的事情	-9514
,《	-9515
丽丝	-9516
书面	-9517
人手	-9518
依照	-9519
借贷	-9520
可供	-9521
喝的	-9522
处女	-9523
天下	-9524
寒冷	-9525
少了	-9526
打造	-9527
教的	-9528
无知	-9529
有益	-9530
有种	-9531
歇尔	-9532
民事	-9533
点半	-9534
留了	-9535
的花	-9536
盖茨	-9537
目睹	-9538
硬件	-9539
能帮	-9540
萝卜	-9541
被判	-9542
认证	-9543
账单	-9544
边上	-9545
阿姨	-9546
黑客	-9547
ton	-9548
▁一张	-9549
▁一群	-9550
▁谷歌	-9551
一个新	-9552
了一张	-9553
事情的	-9554
你是在	-9555
使我们	-9556
做生意	-9557
再也不	-9558
外国人	-9559
多少人	-9560
奥尔良	-9561
她没有	-9562
已经是	-9563
托马斯	-9564
接受的	-9565
政府和	-9566
生产的	-9567
生命中	-9568
藏起来	-9569
▁下一个	-9570
▁你儿子	-9571
▁你还没	-9572
▁在这儿	-9573
▁就因为	-9574
▁我妻子	-9575
▁是为了	-9576
在一起的	-9577
我们不会	-9578
经济发展	-9579
货币政策	-9580
高尔夫球场	-9581
pp	-9582
▁冲	-9583
▁没	-9584
乔伊	-9585
伤亡	-9586
伦理	-9587
分数	-9588
勃勃	-9589
却在	-9590
周边	-9591
图表	-9592
就想	-9593
尼尔	-9594
师父	-9595
序列	-9596
得去	-9597
戴维	-9598
打球	-9599
收养	-9600
普京	-9601
普拉	-9602
枪支	-9603
涉嫌	-9604
灭绝	-9605
点心	-9606
特斯	-9607
用水	-9608
瞄准	-9609
碎了	-9610
第六	-9611
诺斯	-9612
负面	-9613
赶上	-9614
这款	-9615
连环	-9616
预备	-9617
预感	-9618
驾车	-9619
▁他和	-9620
▁回来	-9621
▁国家	-9622
▁好多	-9623
▁并且	-9624
▁相比	-9625
一团糟	-9626
不用了	-9627
你的话	-9628
去世了	-9629
后面的	-9630
吸引了	-9631
地下室	-9632
就是在	-9633
影响的	-9634
想什么	-9635
我们想	-9636
我是谁	-9637
我肯定	-9638
杰克逊	-9639
的衣服	-9640
看电影	-9641
这个吗	-9642
这句话	-9643
这孩子	-9644
部电影	-9645
都知道	-9646
▁你今晚	-9647
▁好消息	-9648
▁我们把	-9649
▁我把他	-9650
▁我把你	-9651
▁我答应	-9652
▁我让你	-9653
变得更加	-9654
平板电脑	-9655
我们不是	-9656
▁但如果你	-9657
▁你就不能	-9658
和你在一起	-9659
4.	-9660
pe	-9661
▁二	-9662
▁博	-9663
▁莫	-9664
产物	-9665
亲吻	-9666
免得	-9667
前妻	-9668
勉强	-9669
卓越	-9670
向西	-9671
吩咐	-9672
和对	-9673
品味	-9674
女郎	-9675
家园	-9676
山羊	-9677
忽然	-9678
指向	-9679
救了	-9680
无礼	-9681
时不	-9682
服从	-9683
本能	-9684
林肯	-9685
树上	-9686
活性	-9687
流氓	-9688
症的	-9689
的死	-9690
碰巧	-9691
礼品	-9692
脚的	-9693
花在	-9694
蝙蝠	-9695
要走	-9696
迷惑	-9697
追查	-9698
雅各	-9699
马车	-9700
▁每当	-9701
不断地	-9702
交给我	-9703
但如果	-9704
其它的	-9705
内心的	-9706
别忘了	-9707
口袋里	-9708
存在于	-9709
常见的	-9710
必须在	-9711
我只想	-9712
报纸上	-9713
搞什么	-9714
搞清楚	-9715
是一件	-9716
最棒的	-9717
的投资	-9718
的法律	-9719
的生命	-9720
...?	-9721
▁你甚至	-9722
▁可是我	-9723
▁我听见	-9724
▁我昨天	-9725
▁把它们	-9726
他们不会	-9727
我还以为	-9728
苹果公司	-9729
什么都没有	-9730
aw	-9731
一分	-9732
一款	-9733
下令	-9734
仍是	-9735
位子	-9736
充斥	-9737
别管	-9738
力气	-9739
十足	-9740
卡梅	-9741
可用	-9742
地盘	-9743
导向	-9744
很酷	-9745
悬崖	-9746
托尼	-9747
抱着	-9748
救你	-9749
教导	-9750
来啊	-9751
深的	-9752
瓦尔	-9753
真诚	-9754
穿了	-9755
签订	-9756
赠送	-9757
顺序	-9758
911	-9759
你肯定	-9760
信息的	-9761
出生的	-9762
在英国	-9763
姑娘们	-9764
对你说	-9765
对那些	-9766
建筑师	-9767
怎么想	-9768
我之前	-9769
星期六	-9770
极大的	-9771
的人吗	-9772
的规定	-9773
真不错	-9774
自然的	-9775
适当的	-9776
那我们	-9777
▁也不是	-9778
▁别这么	-9779
▁我们刚	-9780
▁我女儿	-9781
圣诞老人	-9782
我们正在	-9783
政府官员	-9784
酒店就在	-9785
午餐和晚餐	-9786
▁关	-9787
▁富	-9788
上台	-9789
专辑	-9790
丰田	-9791
从此	-9792
准时	-9793
几率	-9794
制片	-9795
剥夺	-9796
勒斯	-9797
取了	-9798
名义	-9799
在场	-9800
坚决	-9801
奉献	-9802
奥利	-9803
奥林	-9804
学费	-9805
小学	-9806
尽了	-9807
峰会	-9808
慢性	-9809
探险	-9810
文献	-9811
最具	-9812
深度	-9813
烧了	-9814
的脸	-9815
睡衣	-9816
而死	-9817
自尊	-9818
航行	-9819
被关	-9820
身处	-9821
轮椅	-9822
野蛮	-9823
长久	-9824
▁哪儿	-9825
世界里	-9826
也知道	-9827
使用了	-9828
保守党	-9829
危机的	-9830
吃午饭	-9831
就是我	-9832
忘记了	-9833
我还能	-9834
所需的	-9835
的建议	-9836
的音乐	-9837
第二天	-9838
▁你不必	-9839
一个朋友	-9840
开玩笑吧	-9841
▁即	-9842
▁王	-9843
两只	-9844
个子	-9845
亚哥	-9846
伯爵	-9847
保管	-9848
修道	-9849
倾听	-9850
劳工	-9851
发疯	-9852
吻合	-9853
呆着	-9854
四周	-9855
壁炉	-9856
失陪	-9857
好友	-9858
官司	-9859
思路	-9860
悲惨	-9861
手表	-9862
拿去	-9863
排练	-9864
救我	-9865
景象	-9866
服役	-9867
来吗	-9868
标题	-9869
派人	-9870
滑稽	-9871
生死	-9872
竞技	-9873
编码	-9874
蒂斯	-9875
说起	-9876
课堂	-9877
谈了	-9878
里亚	-9879
镇静	-9880
防守	-9881
预料	-9882
250	-9883
800	-9884
▁你猜	-9885
▁家庭	-9886
▁是么	-9887
▁神经	-9888
不是个	-9889
不那么	-9890
你们会	-9891
你确定	-9892
又一次	-9893
可以让	-9894
是通过	-9895
有那么	-9896
的交易	-9897
的看法	-9898
的自由	-9899
而来的	-9900
谈过了	-9901
这是你	-9902
进入了	-9903
集中在	-9904
▁你当然	-9905
▁我希望	-9906
和你一样	-9907
很有可能	-9908
现在已经	-9909
非常感谢	-9910
一副	-9911
一千	-9912
一度	-9913
中枪	-9914
买到	-9915
众人	-9916
伪造	-9917
住院	-9918
体力	-9919
偏见	-9920
入睡	-9921
分支	-9922
卡因	-9923
参数	-9924
变异	-9925
吃完	-9926
告别	-9927
她也	-9928
姿态	-9929
小麦	-9930
就走	-9931
得分	-9932
情景	-9933
惠普	-9934
我为	-9935
手续	-9936
拿起	-9937
振作	-9938
无情	-9939
时就	-9940
时髦	-9941
普林	-9942
照看	-9943
玩玩	-9944
相爱	-9945
裁判	-9946
辛格	-9947
那又	-9948
都得	-9949
食用	-9950
高潮	-9951
lin	-9952
▁再次	-9953
不认识	-9954
到了吗	-9955
家可归	-9956
我当时	-9957
我确实	-9958
提高了	-9959
是否会	-9960
普通人	-9961
有多大	-9962
比较好	-9963
的意思	-9964
竞争力	-9965
能够在	-9966
自身的	-9967
英里的	-9968
负责任	-9969
长大了	-9970
面临的	-9971
▁在过去	-9972
▁我不再	-9973
▁我好像	-9974
几乎没有	-9975
变成一个	-9976
成为一名	-9977
至关重要	-9978
▁你不需要	-9979
▁论	-9980
一向	-9981
丢掉	-9982
买下	-9983
从那	-9984
你为	-9985
克鲁	-9986
军的	-9987
冷却	-9988
十八	-9989
十四	-9990
压缩	-9991
去那	-9992
口水	-9993
吃掉	-9994
否决	-9995
听了	-9996
堕落	-9997
塑造	-9998
安息	-9999
害羞	-10000
影子	-10001
快餐	-10002
捐款	-10003
放大	-10004
教皇	-10005
无罪	-10006
法则	-10007
潮流	-10008
炫耀	-10009
点子	-10010
爱人	-10011
牛津	-10012
物浦	-10013
特律	-10014
生成	-10015
男士	-10016
画家	-10017
知名	-10018
立马	-10019
素的	-10020
纠缠	-10021
让步	-10022
赌注	-10023
转身	-10024
追逐	-10025
选的	-10026
难受	-10027
露出	-10028
骑马	-10029
骗我	-10030
黑洞	-10031
▁其它	-10032
▁穿上	-10033
一般的	-10034
伴随着	-10035
似乎是	-10036
做出了	-10037
利桑那	-10038
失败的	-10039
我想我	-10040
斯坦福	-10041
流动性	-10042
的母亲	-10043
着我们	-10044
管理局	-10045
获得的	-10046
说这个	-10047
重大的	-10048
长大的	-10049
3000	-10050
▁不会吧	-10051
▁他需要	-10052
▁你相信	-10053
▁在这种	-10054
▁干得好	-10055
▁我为你	-10056
▁我从来	-10057
▁我收到	-10058
▁我确定	-10059
▁有可能	-10060
一些东西	-10061
印象深刻	-10062
在我们的	-10063
每一个人	-10064
▁你一定要	-10065
▁你知道她	-10066
▁我们还有	-10067
▁所以他们	-10068
象征性收费	-10069
▁准备好了吗	-10070
很高兴见到你	-10071
de	-10072
▁曾	-10073
▁空	-10074
▁索	-10075
▁花	-10076
上千	-10077
下落	-10078
业的	-10079
人对	-10080
僵尸	-10081
入狱	-10082
其在	-10083
前台	-10084
北美	-10085
压迫	-10086
原料	-10087
右手	-10088
听我	-10089
孤立	-10090
手法	-10091
找找	-10092
新人	-10093
昂贵	-10094
柔软	-10095
毒贩	-10096
演示	-10097
界限	-10098
租赁	-10099
舞者	-10100
良心	-10101
话说	-10102
运送	-10103
还未	-10104
进而	-10105
陆战	-10106
195	-10107
ley	-10108
▁会有	-10109
▁假装	-10110
▁就象	-10111
▁本周	-10112
了解你	-10113
介意我	-10114
他们所	-10115
史以来	-10116
并不想	-10117
幸存者	-10118
很糟糕	-10119
我不要	-10120
无能为	-10121
根本没	-10122
桌子上	-10123
理论上	-10124
的数量	-10125
看到我	-10126
给了他	-10127
给你了	-10128
肯尼亚	-10129
让别人	-10130
▁出发地	-10131
▁我不太	-10132
▁我得去	-10133
一个男人	-10134
不是我的	-10135
你看起来	-10136
把自己的	-10137
法官大人	-10138
ivers	-10139
▁你看上去	-10140
▁我不希望	-10141
▁我们希望	-10142
给你打电话	-10143
yn	-10144
▁卖	-10145
一方	-10146
不不	-10147
与人	-10148
仆人	-10149
俄亥	-10150
冷冻	-10151
化和	-10152
医药	-10153
可行	-10154
各项	-10155
天花	-10156
实体	-10157
床垫	-10158
开采	-10159
扇门	-10160
救济	-10161
标识	-10162
的三	-10163
的上	-10164
的和	-10165
维奇	-10166
绿灯	-10167
而你	-10168
袜子	-10169
观测	-10170
解剖	-10171
警员	-10172
谣言	-10173
路边	-10174
躲避	-10175
送我	-10176
逼我	-10177
遍了	-10178
那份	-10179
野兽	-10180
问候	-10181
陆军	-10182
ate	-10183
▁值得	-10184
▁出来	-10185
▁她没	-10186
不了了	-10187
众议院	-10188
保护你	-10189
做到的	-10190
去那里	-10191
就是他	-10192
拥有一	-10193
摄影师	-10194
斯科特	-10195
是那个	-10196
沙发上	-10197
电视机	-10198
的分析	-10199
的商业	-10200
的基本	-10201
的新闻	-10202
看着他	-10203
着我的	-10204
纪念日	-10205
给他的	-10206
行为的	-10207
觉得我	-10208
通常是	-10209
2002	-10210
▁今天是	-10211
▁我本想	-10212
▁联合国	-10213
一个星期	-10214
与众不同	-10215
国家公园	-10216
就是这个	-10217
我在一起	-10218
的时候就	-10219
货币基金	-10220
重新开始	-10221
▁你知道什么	-10222
ational	-10223
ta	-10224
▁'	-10225
。“	-10226
中断	-10227
举止	-10228
事要	-10229
人质	-10230
会更	-10231
倒闭	-10232
先进	-10233
光线	-10234
凶杀	-10235
升高	-10236
厌烦	-10237
变动	-10238
外汇	-10239
天上	-10240
奋斗	-10241
套餐	-10242
将使	-10243
层面	-10244
得像	-10245
恐龙	-10246
抽象	-10247
来接	-10248
瓶子	-10249
用力	-10250
短缺	-10251
研讨	-10252
祭司	-10253
缩减	-10254
萨拉	-10255
裸体	-10256
费城	-10257
过滤	-10258
首要	-10259
120	-10260
▁上海	-10261
▁多数	-10262
▁律师	-10263
万圣节	-10264
俄亥俄	-10265
先进的	-10266
到这个	-10267
双胞胎	-10268
快乐的	-10269
感到很	-10270
是个大	-10271
最重要	-10272
死亡的	-10273
爱德华	-10274
现有的	-10275
的做法	-10276
的房子	-10277
的这个	-10278
的销售	-10279
还好吗	-10280
这个的	-10281
5000	-10282
▁你发现	-10283
▁所以她	-10284
▁这样的	-10285
一起工作	-10286
多长时间	-10287
我要走了	-10288
绝大多数	-10289
金融机构	-10290
▁我们要去	-10291
▁平	-10292
▁金	-10293
一首	-10294
与之	-10295
丑陋	-10296
乐于	-10297
仍有	-10298
代谢	-10299
住处	-10300
保住	-10301
停在	-10302
停滞	-10303
先前	-10304
制止	-10305
力度	-10306
加班	-10307
可在	-10308
合唱	-10309
啦啦	-10310
头盔	-10311
家中	-10312
寄生	-10313
巴尔	-10314
干旱	-10315
挂在	-10316
支配	-10317
明了	-10318
有力	-10319
权限	-10320
杰瑞	-10321
棺材	-10322
概率	-10323
盗窃	-10324
结算	-10325
越过	-10326
途中	-10327
遥控	-10328
那件	-10329
野心	-10330
问了	-10331
雕塑	-10332
ace	-10333
▁St	-10334
▁一份	-10335
▁但它	-10336
▁奇怪	-10337
▁它在	-10338
▁布鲁	-10339
不是么	-10340
之前就	-10341
了一大	-10342
今年的	-10343
他们想	-10344
国防部	-10345
安东尼	-10346
小冰箱	-10347
底特律	-10348
我们对	-10349
我们才	-10350
承包商	-10351
教育的	-10352
比如说	-10353
的形式	-10354
相应的	-10355
着一个	-10356
着他的	-10357
舞台上	-10358
谁知道	-10359
这一次	-10360
迷人的	-10361
▁and	-10362
▁一些人	-10363
▁他一定	-10364
一些事情	-10365
你的帮助	-10366
可以看到	-10367
干了什么	-10368
石油公司	-10369
调查显示	-10370
迄今为止	-10371
非常重要	-10372
自己的生活	-10373
windows	-10374
ok	-10375
▁贝	-10376
一所	-10377
专栏	-10378
两条	-10379
为期	-10380
争端	-10381
作案	-10382
匈牙	-10383
在做	-10384
塔尔	-10385
声誉	-10386
备受	-10387
外婆	-10388
大象	-10389
大赛	-10390
定居	-10391
小费	-10392
尼古	-10393
庇护	-10394
开个	-10395
念头	-10396
怀特	-10397
提案	-10398
收看	-10399
海关	-10400
消极	-10401
温室	-10402
火鸡	-10403
狙击	-10404
瘫痪	-10405
离家	-10406
窗帘	-10407
童话	-10408
终身	-10409
罚款	-10410
脱衣	-10411
解脱	-10412
警惕	-10413
讯息	-10414
贪婪	-10415
资讯	-10416
起到	-10417
这套	-10418
遗嘱	-10419
量子	-10420
闪光	-10421
马来	-10422
高端	-10423
20%	-10424
ina	-10425
ore	-10426
乌克兰	-10427
你要是	-10428
别说了	-10429
前所未	-10430
历史的	-10431
去医院	-10432
史蒂夫	-10433
喜爱的	-10434
在那个	-10435
女性的	-10436
宇航员	-10437
就像个	-10438
新泽西	-10439
是否能	-10440
显而易	-10441
来参加	-10442
流行的	-10443
爱好者	-10444
看出来	-10445
简直是	-10446
超能力	-10447
还包括	-10448
集团的	-10449
ipad	-10450
其他国家	-10451
有什么事	-10452
考虑一下	-10453
有什么关系	-10454
▁很高兴见到你	-10455
.)	-10456
46	-10457
iz	-10458
ph	-10459
不理	-10460
之道	-10461
乱了	-10462
人人	-10463
从头	-10464
低调	-10465
侦察	-10466
保卫	-10467
凭借	-10468
出差	-10469
只剩	-10470
同行	-10471
后门	-10472
埋葬	-10473
夜间	-10474
好笑	-10475
宏观	-10476
密集	-10477
导师	-10478
小偷	-10479
干燥	-10480
战役	-10481
是么	-10482
期货	-10483
来回	-10484
求职	-10485
油价	-10486
温泉	-10487
电源	-10488
眼下	-10489
纳米	-10490
脱掉	-10491
芬兰	-10492
英俊	-10493
语气	-10494
诸多	-10495
销商	-10496
键盘	-10497
闻到	-10498
阶层	-10499
▁两位	-10500
▁卡尔	-10501
▁尼克	-10502
不多了	-10503
两分钟	-10504
仍然是	-10505
他还是	-10506
但不是	-10507
做出的	-10508
健身房	-10509
冷静点	-10510
即使是	-10511
喜欢他	-10512
基督徒	-10513
她不会	-10514
引发了	-10515
把那些	-10516
时期的	-10517
的事吗	-10518
的反应	-10519
的土地	-10520
的空间	-10521
睡不着	-10522
破坏了	-10523
确实是	-10524
罕默德	-10525
解决的	-10526
那东西	-10527
▁你叫我	-10528
▁弗兰克	-10529
▁我见过	-10530
圣地亚哥	-10531
大不了的	-10532
帮助我们	-10533
提供一个	-10534
的时候我	-10535
的重要性	-10536
野生动物	-10537
▁你告诉我	-10538
▁所以我才	-10539
ud	-10540
一枪	-10541
之人	-10542
他那	-10543
压根	-10544
双眼	-10545
吉普	-10546
吓到	-10547
听众	-10548
奢华	-10549
带子	-10550
更像	-10551
枪手	-10552
气管	-10553
洋葱	-10554
炸药	-10555
烟雾	-10556
疏散	-10557
红酒	-10558
西藏	-10559
间接	-10560
闻名	-10561
雄心	-10562
馅饼	-10563
are	-10564
▁准确	-10565
不行了	-10566
了解我	-10567
他可能	-10568
会发现	-10569
你今天	-10570
你刚才	-10571
你的脸	-10572
分子的	-10573
另一边	-10574
可以从	-10575
太大了	-10576
好像是	-10577
将继续	-10578
某个人	-10579
用你的	-10580
管理员	-10581
这么干	-10582
那只是	-10583
那是我	-10584
非常的	-10585
▁但你们	-10586
▁她让我	-10587
▁意大利	-10588
▁我来了	-10589
▁或者是	-10590
仅此而已	-10591
你是对的	-10592
无家可归	-10593
是个好人	-10594
联邦政府	-10595
▁她看起来	-10596
▁我告诉他	-10597
▁接下来的	-10598
发生什么事	-10599
▁我可以给你	-10600
贝斯特韦斯特普拉斯	-10601
▁哼	-10602
中尉	-10603
中海	-10604
亚瑟	-10605
亲手	-10606
仅有	-10607
任期	-10608
众所	-10609
作剧	-10610
作弊	-10611
停留	-10612
分解	-10613
别提	-10614
发觉	-10615
叫她	-10616
叫醒	-10617
各类	-10618
合资	-10619
向北	-10620
夜里	-10621
天真	-10622
年在	-10623
库存	-10624
开火	-10625
弗莱	-10626
想出	-10627
憎恨	-10628
扎克	-10629
抨击	-10630
拉拉	-10631
最早	-10632
松饼	-10633
气象	-10634
水上	-10635
波罗	-10636
浓度	-10637
激怒	-10638
环绕	-10639
的总	-10640
破解	-10641
窗外	-10642
素质	-10643
约定	-10644
级别	-10645
绝不	-10646
行走	-10647
西南	-10648
谁能	-10649
跑去	-10650
问她	-10651
▁为啥	-10652
▁儿子	-10653
▁别碰	-10654
▁客人	-10655
▁欢迎	-10656
中情局	-10657
为这个	-10658
他只是	-10659
你一直	-10660
你明白	-10661
你是说	-10662
再一次	-10663
准备的	-10664
它们是	-10665
工作时	-10666
建立在	-10667
录像带	-10668
恶作剧	-10669
我刚刚	-10670
我听说	-10671
无论是	-10672
有时间	-10673
给了你	-10674
间客房	-10675
▁我是在	-10676
▁我没事	-10677
不太可能	-10678
不是什么	-10679
世界各地	-10680
你的孩子	-10681
并不知道	-10682
心理学家	-10683
找到一个	-10684
社交网络	-10685
科学家们	-10686
这些问题	-10687
▁你在这里	-10688
77	-10689
▁休	-10690
▁哥	-10691
一艘	-10692
上是	-10693
两倍	-10694
临近	-10695
他却	-10696
你走	-10697
假日	-10698
做错	-10699
储藏	-10700
催眠	-10701
几句	-10702
出价	-10703
力和	-10704
压抑	-10705
原油	-10706
可悲	-10707
吓唬	-10708
和阿	-10709
图案	-10710
场了	-10711
境内	-10712
她能	-10713
戴尔	-10714
敲门	-10715
早了	-10716
机和	-10717
欠你	-10718
活的	-10719
狗屎	-10720
狗狗	-10721
用手	-10722
罗杰	-10723
美术	-10724
言之	-10725
记载	-10726
追随	-10727
ach	-10728
▁停车	-10729
▁啊哈	-10730
▁我写	-10731
▁鉴于	-10732
你的心	-10733
决不会	-10734
向他们	-10735
把你们	-10736
样东西	-10737
的人会	-10738
的地区	-10739
诺贝尔	-10740
跟他说	-10741
还是会	-10742
通过了	-10743
那么说	-10744
▁他觉得	-10745
▁你难道	-10746
▁我努力	-10747
▁我很想	-10748
外科医生	-10749
我们之间	-10750
我看到了	-10751
监管机构	-10752
出了什么事	-10753
打电话给你	-10754
2%	-10755
▁傻	-10756
人性	-10757
优越	-10758
依法	-10759
修女	-10760
制药	-10761
加热	-10762
勒索	-10763
小事	-10764
席位	-10765
幅画	-10766
并购	-10767
幼儿	-10768
微博	-10769
战后	-10770
打你	-10771
整夜	-10772
曲线	-10773
权益	-10774
梦里	-10775
治安	-10776
激发	-10777
热烈	-10778
珊瑚	-10779
画廊	-10780
胃口	-10781
螺旋	-10782
要想	-10783
观赏	-10784
较低	-10785
迟早	-10786
闹了	-10787
▁一家	-10788
▁一年	-10789
▁分析	-10790
▁当初	-10791
一起走	-10792
不只是	-10793
不希望	-10794
与我们	-10795
他认为	-10796
你只是	-10797
你就能	-10798
你的事	-10799
依赖于	-10800
名单上	-10801
听你的	-10802
她现在	-10803
年开始	-10804
投资的	-10805
支持的	-10806
早上好	-10807
星期天	-10808
疾病的	-10809
的方向	-10810
的酒店	-10811
背后的	-10812
见不到	-10813
解雇了	-10814
跟着我	-10815
▁但这是	-10816
▁你丈夫	-10817
▁你们的	-10818
他们没有	-10819
在一起了	-10820
我是不是	-10821
我知道了	-10822
晚些时候	-10823
知识产权	-10824
说些什么	-10825
高尔夫球	-10826
▁所以我就	-10827
▁从现在开始	-10828
twitter	-10829
,5	-10830
43	-10831
▁麦	-10832
一封	-10833
不被	-10834
两大	-10835
中部	-10836
了在	-10837
任意	-10838
卡片	-10839
埃德	-10840
夫的	-10841
契约	-10842
开幕	-10843
很远	-10844
心了	-10845
恰好	-10846
把门	-10847
推断	-10848
时空	-10849
更具	-10850
正经	-10851
海域	-10852
渗透	-10853
灰色	-10854
点击	-10855
狗屁	-10856
狩猎	-10857
病情	-10858
筹集	-10859
粗鲁	-10860
纳西	-10861
线人	-10862
脉冲	-10863
装了	-10864
视野	-10865
警戒	-10866
认得	-10867
证件	-10868
语的	-10869
软弱	-10870
较为	-10871
辉煌	-10872
通了	-10873
通风	-10874
钞票	-10875
阵营	-10876
雷曼	-10877
鸽子	-10878
dna	-10879
ear	-10880
▁一场	-10881
▁是她	-10882
▁除非	-10883
不怎么	-10884
乔布斯	-10885
做手术	-10886
到我们	-10887
想不到	-10888
想让我	-10889
愉快的	-10890
我们很	-10891
我开始	-10892
报道称	-10893
收益率	-10894
是一项	-10895
是关于	-10896
是由于	-10897
有人会	-10898
有这种	-10899
的客房	-10900
的服务	-10901
记得了	-10902
都需要	-10903
▁什么事	-10904
▁但不是	-10905
▁当我在	-10906
▁我没法	-10907
▁晚上好	-10908
了一系列	-10909
亚利桑那	-10910
受害者的	-10911
我们就能	-10912
我自己的	-10913
研究表明	-10914
这个名字	-10915
这些事情	-10916
那个女人	-10917
▁他们不是	-10918
▁我原以为	-10919
▁我可能会	-10920
各种各样的	-10921
▁我只是不想	-10922
英寸平板电视	-10923
ci	-10924
▁内	-10925
▁星	-10926
不容	-10927
为难	-10928
于此	-10929
侵略	-10930
出名	-10931
前后	-10932
匿名	-10933
变更	-10934
只在	-10935
大国	-10936
好久	-10937
将它	-10938
就来	-10939
幼稚	-10940
废弃	-10941
废除	-10942
征收	-10943
报价	-10944
拉登	-10945
排斥	-10946
搞的	-10947
效力	-10948
木材	-10949
海峡	-10950
海水	-10951
温馨	-10952
点钱	-10953
爱国	-10954
班车	-10955
病房	-10956
科尔	-10957
而这	-10958
誓言	-10959
身子	-10960
过世	-10961
避难	-10962
那辆	-10963
陆地	-10964
集会	-10965
非得	-10966
餐饮	-10967
香蕉	-10968
高效	-10969
ash	-10970
▁一条	-10971
▁住在	-10972
▁公里	-10973
▁她也	-10974
▁很久	-10975
▁泰勒	-10976
▁竟然	-10977
人一样	-10978
他正在	-10979
但是你	-10980
共同点	-10981
几小时	-10982
喝咖啡	-10983
失望了	-10984
失败者	-10985
完蛋了	-10986
家里的	-10987
寻常的	-10988
就不是	-10989
帮帮我	-10990
开发商	-10991
我可能	-10992
电话了	-10993
的天气	-10994
美味的	-10995
让我的	-10996
那我就	-10997
里面的	-10998
▁你希望	-10999
▁因为这	-11000
▁我就会	-11001
一个人的	-11002
你不喜欢	-11003
可不可以	-11004
无能为力	-11005
组成部分	-11006
配有一张	-11007
▁今天晚上	-11008
▁你知道他	-11009
▁我知道你们	-11010
6.	-11011
一事	-11012
一号	-11013
上门	-11014
下场	-11015
不相	-11016
仇恨	-11017
保镖	-11018
信赖	-11019
催化	-11020
公元	-11021
再做	-11022
可没	-11023
固执	-11024
外来	-11025
头疼	-11026
夺走	-11027
对啊	-11028
就很	-11029
岛的	-11030
年间	-11031
庆幸	-11032
弗朗	-11033
忙的	-11034
忙碌	-11035
总值	-11036
悲观	-11037
战的	-11038
拿回	-11039
挑剔	-11040
撞到	-11041
敦促	-11042
星的	-11043
杯子	-11044
杰西	-11045
极限	-11046
武士	-11047
死掉	-11048
的风	-11049
祖国	-11050
突发	-11051
答复	-11052
纠正	-11053
草坪	-11054
蒸汽	-11055
血的	-11056
袋子	-11057
计的	-11058
误导	-11059
贬值	-11060
躲在	-11061
还说	-11062
追捕	-11063
金子	-11064
银河	-11065
雕像	-11066
零件	-11067
顽固	-11068
预示	-11069
imf	-11070
▁仔细	-11071
▁快来	-11072
▁纽约	-11073
不稳定	-11074
世界杯	-11075
你还没	-11076
你这样	-11077
到那里	-11078
回答我	-11079
好东西	-11080
学生的	-11081
对美国	-11082
工作中	-11083
年前的	-11084
微生物	-11085
情人节	-11086
我不该	-11087
我也想	-11088
我帮你	-11089
控制了	-11090
星期四	-11091
有用的	-11092
能让我	-11093
蓝色的	-11094
过一次	-11095
roid	-11096
▁你居然	-11097
▁你还在	-11098
▁我花了	-11099
▁找到了	-11100
合作伙伴	-11101
套房酒店	-11102
开玩笑的	-11103
我在这里	-11104
我很喜欢	-11105
是正确的	-11106
的是一个	-11107
该怎么做	-11108
这些都是	-11109
这样的话	-11110
▁你知道你	-11111
▁我听说你	-11112
▁我有很多	-11113
to	-11114
下台	-11115
不让	-11116
个澡	-11117
五月	-11118
以致	-11119
传感	-11120
传言	-11121
何处	-11122
吃药	-11123
后备	-11124
听的	-11125
回合	-11126
大通	-11127
她对	-11128
局里	-11129
工党	-11130
懦夫	-11131
打工	-11132
打来	-11133
木头	-11134
杀你	-11135
杂货	-11136
正直	-11137
步入	-11138
残留	-11139
毛衣	-11140
水晶	-11141
海啸	-11142
滚开	-11143
满是	-11144
煤炭	-11145
狗娘	-11146
用作	-11147
硬盘	-11148
穿梭	-11149
签了	-11150
能使	-11151
腾的	-11152
血统	-11153
认罪	-11154
议案	-11155
论者	-11156
远处	-11157
里奇	-11158
锁定	-11159
ran	-11160
▁ro	-11161
▁会议	-11162
▁其次	-11163
▁去找	-11164
▁天气	-11165
▁家里	-11166
不可以	-11167
不足以	-11168
之后的	-11169
了一只	-11170
人民的	-11171
今晚的	-11172
价值观	-11173
众所周	-11174
你不要	-11175
因为这	-11176
在欧洲	-11177
我做了	-11178
我无法	-11179
晚上的	-11180
条件下	-11181
没有了	-11182
清楚地	-11183
玩游戏	-11184
理想的	-11185
的使用	-11186
的女儿	-11187
的对象	-11188
罗姆尼	-11189
要不要	-11190
这样了	-11191
▁你只有	-11192
▁她认为	-11193
▁我终于	-11194
也就是说	-11195
亚历山大	-11196
到这里来	-11197
呆在这里	-11198
坐在这里	-11199
如果他们	-11200
年的时间	-11201
我说的是	-11202
通用汽车	-11203
那天晚上	-11204
▁但我知道	-11205
▁在我们的	-11206
▁我不相信	-11207
▁我来告诉你	-11208
ew	-11209
▁额	-11210
上我	-11211
不变	-11212
举起	-11213
争执	-11214
人间	-11215
以免	-11216
会去	-11217
信托	-11218
内地	-11219
冒着	-11220
十三	-11221
华德	-11222
哺乳	-11223
地质	-11224
天后	-11225
山顶	-11226
当个	-11227
手腕	-11228
报仇	-11229
日在	-11230
本该	-11231
架构	-11232
步伐	-11233
比卡	-11234
气息	-11235
沿海	-11236
法医	-11237
爸妈	-11238
犯错	-11239
狠狠	-11240
猪肉	-11241
生殖	-11242
番茄	-11243
福音	-11244
税率	-11245
置于	-11246
羽毛	-11247
莱特	-11248
衍生	-11249
补助	-11250
被我	-11251
言语	-11252
起初	-11253
道菜	-11254
铁矿	-11255
院的	-11256
▁你有	-11257
▁快走	-11258
中国和	-11259
你看到	-11260
你认识	-11261
做准备	-11262
儿子的	-11263
切尔西	-11264
医生的	-11265
哪去了	-11266
在全球	-11267
基础上	-11268
多年来	-11269
并不会	-11270
恢复了	-11271
我在这	-11272
提到了	-11273
搞错了	-11274
是多少	-11275
没有被	-11276
涉及到	-11277
理解的	-11278
的角度	-11279
睡觉了	-11280
离开我	-11281
管理者	-11282
跟别人	-11283
运动的	-11284
这都是	-11285
▁你看看	-11286
▁你见过	-11287
▁俄罗斯	-11288
一次机会	-11289
两个小时	-11290
好起来的	-11291
如果你们	-11292
搜索引擎	-11293
某个地方	-11294
电视节目	-11295
绝对不会	-11296
美国总统	-11297
这种方式	-11298
▁你们不是	-11299
▁打扰一下	-11300
会发生什么	-11301
1%	-11302
cl	-11303
▁口	-11304
▁吉	-11305
▁图	-11306
▁弹	-11307
▁来	-11308
▁白	-11309
一月	-11310
买个	-11311
优化	-11312
会见	-11313
像他	-11314
全美	-11315
公爵	-11316
关税	-11317
勇士	-11318
十六	-11319
卷入	-11320
去吗	-11321
发泄	-11322
叛乱	-11323
后代	-11324
境地	-11325
妄想	-11326
属性	-11327
徘徊	-11328
恩斯	-11329
手册	-11330
拇指	-11331
操控	-11332
最爱	-11333
束缚	-11334
棉花	-11335
毒素	-11336
激活	-11337
珍珠	-11338
用在	-11339
病理	-11340
百货	-11341
的啊	-11342
纳森	-11343
终极	-11344
维基	-11345
能把	-11346
腐烂	-11347
船舶	-11348
芭蕾	-11349
跟上	-11350
过量	-11351
退后	-11352
邮箱	-11353
邻国	-11354
野餐	-11355
面孔	-11356
鲸鱼	-11357
▁他正	-11358
▁你拿	-11359
▁头儿	-11360
▁嫌犯	-11361
上来说	-11362
不觉得	-11363
交易的	-11364
会有人	-11365
学校里	-11366
实现了	-11367
希望的	-11368
形式的	-11369
我愿意	-11370
我甚至	-11371
新鲜的	-11372
此之外	-11373
独一无	-11374
电话里	-11375
的主题	-11376
的存在	-11377
的最好	-11378
的费用	-11379
相似的	-11380
让人们	-11381
试试看	-11382
还不是	-11383
采取了	-11384
▁他以前	-11385
▁我不敢	-11386
▁有些人	-11387
一个女孩	-11388
你们这些	-11389
共产主义	-11390
小的时候	-11391
尤其是在	-11392
我得走了	-11393
我的家人	-11394
最高法院	-11395
这个家伙	-11396
▁但我还是	-11397
▁对你来说	-11398
▁我听到了	-11399
到底是什么	-11400
1/	-11401
▁性	-11402
他从	-11403
何种	-11404
做成	-11405
内涵	-11406
况且	-11407
出人	-11408
前提	-11409
加勒	-11410
升起	-11411
受的	-11412
响了	-11413
地在	-11414
外出	-11415
大伙	-11416
威斯	-11417
害死	-11418
对策	-11419
封面	-11420
异议	-11421
急剧	-11422
手提	-11423
拓展	-11424
救命	-11425
救生	-11426
日志	-11427
期刊	-11428
查到	-11429
橡胶	-11430
歌唱	-11431
牙医	-11432
猎物	-11433
电线	-11434
登上	-11435
莉亚	-11436
萎缩	-11437
虚弱	-11438
行长	-11439
西蒙	-11440
路径	-11441
路的	-11442
过一	-11443
迫切	-11444
采集	-11445
重返	-11446
陪你	-11447
难堪	-11448
▁sh	-11449
▁上校	-11450
▁不同	-11451
▁别走	-11452
▁可我	-11453
▁带上	-11454
▁派对	-11455
一个有	-11456
与美国	-11457
个月前	-11458
了一位	-11459
争议的	-11460
原因的	-11461
外面的	-11462
居住在	-11463
想让你	-11464
我们把	-11465
我的确	-11466
报告中	-11467
星期一	-11468
杀死了	-11469
的游戏	-11470
的精神	-11471
答应我	-11472
这种人	-11473
那件事	-11474
任何人都	-11475
印第安人	-11476
我为什么	-11477
特别是在	-11478
知道什么	-11479
▁他们现在	-11480
▁如果你有	-11481
▁你在做什么	-11482
iversity	-11483
da	-11484
fi	-11485
▁初	-11486
一组	-11487
不值	-11488
之以	-11489
亲人	-11490
付了	-11491
住所	-11492
刹车	-11493
单元	-11494
反击	-11495
古董	-11496
名片	-11497
名誉	-11498
响应	-11499
培育	-11500
堕胎	-11501
天主	-11502
崛起	-11503
当了	-11504
恶意	-11505
情侣	-11506
截然	-11507
扔了	-11508
找她	-11509
提问	-11510
撤退	-11511
斯托	-11512
时常	-11513
暗杀	-11514
更换	-11515
水池	-11516
海底	-11517
漫长	-11518
畅销	-11519
看好	-11520
租金	-11521
称赞	-11522
第七	-11523
终点	-11524
胜地	-11525
自卫	-11526
萨姆	-11527
薯条	-11528
虔诚	-11529
车型	-11530
近来	-11531
重庆	-11532
齐全	-11533
▁加油	-11534
▁又是	-11535
▁是在	-11536
▁银行	-11537
人们在	-11538
你们了	-11539
你妈的	-11540
做的是	-11541
副总统	-11542
可是我	-11543
她不是	-11544
尔先生	-11545
应该有	-11546
引人注	-11547
患者的	-11548
拉斯加	-11549
搜查令	-11550
环境下	-11551
的人群	-11552
的妻子	-11553
的状态	-11554
看着你	-11555
维生素	-11556
谈谈吗	-11557
风格的	-11558
▁我们又	-11559
▁我永远	-11560
▁波士顿	-11561
可以帮助	-11562
我们还有	-11563
摩根大通	-11564
▁我的意思	-11565
▁我知道他	-11566
我也不知道	-11567
ff	-11568
▁拍	-11569
产的	-11570
他为	-11571
伊利	-11572
佛教	-11573
假释	-11574
先知	-11575
其余	-11576
再谈	-11577
分泌	-11578
向东	-11579
向南	-11580
她被	-11581
孕妇	-11582
宣誓	-11583
屈服	-11584
年初	-11585
当心	-11586
总监	-11587
插手	-11588
握手	-11589
斯图	-11590
某处	-11591
棘手	-11592
正面	-11593
死前	-11594
比他	-11595
永不	-11596
油漆	-11597
滋味	-11598
烟草	-11599
玩儿	-11600
电报	-11601
看似	-11602
睡在	-11603
空白	-11604
管用	-11605
要多	-11606
说来	-11607
诺曼	-11608
身为	-11609
转型	-11610
过着	-11611
迪亚	-11612
那不	-11613
隐形	-11614
飙升	-11615
魔力	-11616
黑帮	-11617
iss	-11618
our	-11619
▁世上	-11620
▁我指	-11621
▁空气	-11622
不会被	-11623
不是的	-11624
体育馆	-11625
几个人	-11626
奥林匹	-11627
完成的	-11628
很生气	-11629
我说过	-11630
战争中	-11631
政府在	-11632
有效地	-11633
的眼睛	-11634
的资金	-11635
管理的	-11636
绿色的	-11637
能力的	-11638
这一天	-11639
这样吗	-11640
▁他不能	-11641
▁你听到	-11642
▁我们对	-11643
▁我们用	-11644
▁把我们	-11645
他们认为	-11646
就在这里	-11647
生活方式	-11648
营业时间	-11649
▁他们正在	-11650
▁我们都是	-11651
你为什么不	-11652
iPhone	-11653
eg	-11654
io	-11655
▁刘	-11656
▁经	-11657
一级	-11658
下巴	-11659
丢脸	-11660
低迷	-11661
保龄	-11662
共振	-11663
凯文	-11664
出事	-11665
别处	-11666
口味	-11667
她没	-11668
实时	-11669
尼日	-11670
帕克	-11671
开关	-11672
开来	-11673
往常	-11674
待了	-11675
快来	-11676
我俩	-11677
我已	-11678
打发	-11679
推行	-11680
数月	-11681
有其	-11682
清了	-11683
游说	-11684
灾害	-11685
玩耍	-11686
电磁	-11687
知觉	-11688
祈求	-11689
艰苦	-11690
花的	-11691
装作	-11692
议题	-11693
评判	-11694
贫民	-11695
跟谁	-11696
邻近	-11697
部份	-11698
防卫	-11699
香糖	-11700
验尸	-11701
ver	-11702
▁丹尼	-11703
▁也会	-11704
▁安静	-11705
个电话	-11706
以外的	-11707
你让我	-11708
兄弟们	-11709
参与了	-11710
反映了	-11711
可以去	-11712
多少次	-11713
安德鲁	-11714
希特勒	-11715
带回来	-11716
当他们	-11717
很危险	-11718
战斗机	-11719
打给我	-11720
找什么	-11721
抓住了	-11722
抗议者	-11723
星期三	-11724
有个人	-11725
比赛的	-11726
清楚的	-11727
的人数	-11728
知道她	-11729
问一下	-11730
...-	-11731
▁一会儿	-11732
▁也可以	-11733
▁你当时	-11734
▁好像是	-11735
▁我仍然	-11736
一切都会	-11737
一开始就	-11738
会怎么样	-11739
因为它们	-11740
大宗商品	-11741
对自己的	-11742
解释一下	-11743
这个孩子	-11744
▁我们一直	-11745
▁我只需要	-11746
▁这意味着	-11747
发生什么事了	-11748
pl	-11749
▁令	-11750
▁按	-11751
业主	-11752
为主	-11753
冷漠	-11754
减税	-11755
出院	-11756
别走	-11757
医务	-11758
启示	-11759
和不	-11760
大喊	-11761
她和	-11762
它将	-11763
宫殿	-11764
愉悦	-11765
所欲	-11766
扑克	-11767
抗争	-11768
招募	-11769
沼泽	-11770
点事	-11771
甜甜	-11772
疲劳	-11773
相遇	-11774
破碎	-11775
积累	-11776
结尾	-11777
耶鲁	-11778
肥皂	-11779
腹部	-11780
装的	-11781
责备	-11782
造型	-11783
闪闪	-11784
飞往	-11785
马桶	-11786
ast	-11787
ice	-11788
ood	-11789
ust	-11790
▁18	-11791
▁你上	-11792
▁军队	-11793
▁历史	-11794
▁她用	-11795
▁来吧	-11796
▁毒品	-11797
三个人	-11798
不用说	-11799
不过了	-11800
人员的	-11801
会觉得	-11802
分手了	-11803
副作用	-11804
发现他	-11805
可以说	-11806
在她的	-11807
处理好	-11808
天主教	-11809
带回家	-11810
情报局	-11811
我认识	-11812
找到你	-11813
把孩子	-11814
新来的	-11815
有多么	-11816
没用的	-11817
法国人	-11818
的尸体	-11819
的理论	-11820
看你的	-11821
真漂亮	-11822
第一位	-11823
要求的	-11824
说话了	-11825
那你就	-11826
▁克拉克	-11827
▁希望你	-11828
▁意味着	-11829
▁最好的	-11830
我们都会	-11831
西班牙语	-11832
长期以来	-11833
▁你不可能	-11834
▁我只希望	-11835
▁我来帮你	-11836
▁我来这里	-11837
▁我说的是	-11838
联邦调查局	-11839
▁V	-11840
一身	-11841
三种	-11842
亲热	-11843
优点	-11844
共度	-11845
▁	-11846
。	-11847
的	-11848
,	-11849
我	-11850
你	-11851
是	-11852
了	-11853
不	-11854
一	-11855
在	-11856
们	-11857
他	-11858
?	-11859
.	-11860
有	-11861
这	-11862
人	-11863
个	-11864
为	-11865
来	-11866
会	-11867
么	-11868
要	-11869
好	-11870
到	-11871
上	-11872
就	-11873
能	-11874
以	-11875
和	-11876
可	-11877
说	-11878
她	-11879
那	-11880
得	-11881
时	-11882
对	-11883
想	-11884
去	-11885
过	-11886
大	-11887
没	-11888
!	-11889
道	-11890
什	-11891
很	-11892
但	-11893
里	-11894
中	-11895
生	-11896
子	-11897
国	-11898
知	-11899
吗	-11900
出	-11901
都	-11902
看	-11903
如	-11904
下	-11905
也	-11906
事	-11907
多	-11908
家	-11909
地	-11910
些	-11911
所	-11912
还	-11913
现	-11914
样	-11915
发	-11916
把	-11917
开	-11918
当	-11919
果	-11920
自	-11921
行	-11922
0	-11923
用	-11924
吧	-11925
因	-11926
着	-11927
天	-11928
经	-11929
做	-11930
只	-11931
后	-11932
点	-11933
年	-11934
、	-11935
起	-11936
作	-11937
于	-11938
成	-11939
给	-11940
意	-11941
它	-11942
之	-11943
然	-11944
-	-11945
前	-11946
别	-11947
小	-11948
斯	-11949
最	-11950
法	-11951
而	-11952
心	-11953
学	-11954
定	-11955
从	-11956
方	-11957
公	-11958
让	-11959
1	-11960
其	-11961
真	-11962
分	-11963
面	-11964
被	-11965
话	-11966
动	-11967
者	-11968
间	-11969
美	-11970
已	-11971
机	-11972
儿	-11973
回	-11974
进	-11975
该	-11976
e	-11977
工	-11978
啊	-11979
手	-11980
a	-11981
理	-11982
特	-11983
种	-11984
觉	-11985
力	-11986
明	-11987
无	-11988
本	-11989
电	-11990
像	-11991
应	-11992
同	-11993
将	-11994
听	-11995
告	-11996
情	-11997
怎	-11998
新	-11999
关	-12000
实	-12001
打	-12002
高	-12003
全	-12004
2	-12005
正	-12006
女	-12007
信	-12008
问	-12009
西	-12010
再	-12011
更	-12012
利	-12013
见	-12014
己	-12015
性	-12016
相	-12017
认	-12018
车	-12019
太	-12020
比	-12021
部	-12022
尔	-12023
或	-12024
找	-12025
克	-12026
长	-12027
重	-12028
业	-12029
加	-12030
与	-12031
次	-12032
物	-12033
i	-12034
走	-12035
“	-12036
o	-12037
”	-12038
场	-12039
感	-12040
主	-12041
提	-12042
并	-12043
受	-12044
两	-12045
快	-12046
体	-12047
等	-12048
候	-12049
外	-12050
先	-12051
需	-12052
诉	-12053
孩	-12054
保	-12055
n	-12056
r	-12057
计	-12058
常	-12059
妈	-12060
带	-12061
死	-12062
表	-12063
员	-12064
政	-12065
头	-12066
使	-12067
此	-12068
位	-12069
合	-12070
管	-12071
今	-12072
名	-12073
爱	-12074
通	-12075
呢	-12076
活	-12077
安	-12078
接	-12079
司	-12080
:	-12081
)	-12082
(	-12083
放	-12084
任	-12085
何	-12086
跟	-12087
制	-12088
拉	-12089
变	-12090
入	-12091
几	-12092
解	-12093
直	-12094
日	-12095
度	-12096
东	-12097
内	-12098
每	-12099
身	-12100
题	-12101
向	-12102
系	-12103
欢	-12104
t	-12105
帮	-12106
数	-12107
期	-12108
结	-12109
干	-12110
晚	-12111
老	-12112
s	-12113
件	-12114
化	-12115
及	-12116
德	-12117
喜	-12118
离	-12119
哪	-12120
许	-12121
产	-12122
总	-12123
才	-12124
马	-12125
金	-12126
市	-12127
房	-12128
资	-12129
水	-12130
处	-12131
非	-12132
望	-12133
5	-12134
世	-12135
教	-12136
少	-12137
第	-12138
务	-12139
始	-12140
完	-12141
l	-12142
又	-12143
目	-12144
文	-12145
错	-12146
住	-12147
气	-12148
品	-12149
三	-12150
记	-12151
准	-12152
月	-12153
备	-12154
交	-12155
服	-12156
报	-12157
证	-12158
酒	-12159
亲	-12160
刚	-12161
基	-12162
球	-12163
3	-12164
量	-12165
格	-12166
英	-12167
友	-12168
路	-12169
确	-12170
白	-12171
选	-12172
杀	-12173
士	-12174
收	-12175
由	-12176
失	-12177
论	-12178
代	-12179
民	-12180
口	-12181
希	-12182
统	-12183
必	-12184
布	-12185
区	-12186
早	-12187
查	-12188
指	-12189
亚	-12190
持	-12191
钱	-12192
平	-12193
拿	-12194
式	-12195
海	-12196
吃	-12197
议	-12198
决	-12199
界	-12200
c	-12201
门	-12202
约	-12203
谢	-12204
供	-12205
难	-12206
达	-12207
切	-12208
设	-12209
费	-12210
原	-12211
9	-12212
周	-12213
色	-12214
思	-12215
运	-12216
试	-12217
建	-12218
反	-12219
包	-12220
影	-12221
程	-12222
巴	-12223
至	-12224
叫	-12225
客	-12226
求	-12227
谈	-12228
4	-12229
边	-12230
近	-12231
战	-12232
据	-12233
乐	-12234
神	-12235
示	-12236
联	-12237
科	-12238
商	-12239
术	-12240
视	-12241
哦	-12242
星	-12243
罗	-12244
医	-12245
尼	-12246
队	-12247
单	-12248
警	-12249
夫	-12250
息	-12251
价	-12252
空	-12253
且	-12254
男	-12255
条	-12256
清	-12257
究	-12258
算	-12259
伙	-12260
造	-12261
病	-12262
够	-12263
整	-12264
d	-12265
卡	-12266
命	-12267
请	-12268
助	-12269
消	-12270
办	-12271
立	-12272
研	-12273
案	-12274
谁	-12275
治	-12276
强	-12277
展	-12278
类	-12279
易	-12280
爸	-12281
害	-12282
朋	-12283
调	-12284
十	-12285
m	-12286
风	-12287
取	-12288
室	-12289
投	-12290
装	-12291
军	-12292
器	-12293
店	-12294
花	-12295
光	-12296
师	-12297
导	-12298
权	-12299
改	-12300
片	-12301
流	-12302
张	-12303
官	-12304
府	-12305
义	-12306
远	-12307
字	-12308
传	-12309
组	-12310
识	-12311
支	-12312
尽	-12313
济	-12314
8	-12315
声	-12316
线	-12317
嗯	-12318
象	-12319
h	-12320
6	-12321
兴	-12322
伤	-12323
网	-12324
注	-12325
击	-12326
餐	-12327
院	-12328
根	-12329
照	-12330
号	-12331
言	-12332
停	-12333
玩	-12334
7	-12335
转	-12336
标	-12337
书	-12338
万	-12339
却	-12340
父	-12341
买	-12342
元	-12343
留	-12344
兰	-12345
份	-12346
须	-12347
嘿	-12348
未	-12349
图	-12350
险	-12351
担	-12352
u	-12353
观	-12354
阿	-12355
引	-12356
护	-12357
显	-12358
复	-12359
掉	-12360
二	-12361
越	-12362
乎	-12363
各	-12364
节	-12365
演	-12366
际	-12367
维	-12368
争	-12369
游	-12370
眼	-12371
火	-12372
音	-12373
划	-12374
领	-12375
您	-12376
城	-12377
存	-12378
称	-12379
p	-12380
抱	-12381
共	-12382
g	-12383
参	-12384
便	-12385
具	-12386
站	-12387
项	-12388
况	-12389
止	-12390
步	-12391
形	-12392
即	-12393
增	-12394
密	-12395
仅	-12396
技	-12397
另	-12398
穿	-12399
愿	-12400
续	-12401
贝	-12402
;	-12403
台	-12404
规	-12405
奇	-12406
待	-12407
语	-12408
写	-12409
控	-12410
精	-12411
首	-12412
社	-12413
令	-12414
往	-12415
型	-12416
婚	-12417
四	-12418
容	-12419
否	-12420
b	-12421
华	-12422
赛	-12423
食	-12424
则	-12425
母	-12426
欧	-12427
热	-12428
"	-12429
脑	-12430
飞	-12431
枪	-12432
血	-12433
哥	-12434
质	-12435
响	-12436
速	-12437
预	-12438
除	-12439
察	-12440
林	-12441
满	-12442
校	-12443
肯	-12444
集	-12445
笑	-12446
奥	-12447
局	-12448
极	-12449
值	-12450
犯	-12451
验	-12452
假	-12453
紧	-12454
随	-12455
律	-12456
呃	-12457
团	-12458
低	-12459
银	-12460
考	-12461
足	-12462
绝	-12463
断	-12464
功	-12465
送	-12466
托	-12467
专	-12468
普	-12469
免	-12470
历	-12471
山	-12472
歉	-12473
底	-12474
效	-12475
坐	-12476
洲	-12477
致	-12478
级	-12479
轻	-12480
州	-12481
伊	-12482
南	-12483
噢	-12484
怕	-12485
救	-12486
米	-12487
派	-12488
似	-12489
衣	-12490
创	-12491
床	-12492
率	-12493
哈	-12494
威	-12495
料	-12496
责	-12497
承	-12498
味	-12499
测	-12500
排	-12501
久	-12502
坏	-12503
曾	-12504
北	-12505
超	-12506
纳	-12507
宝	-12508
施	-12509
终	-12510
波	-12511
吸	-12512
适	-12513
户	-12514
构	-12515
推	-12516
黑	-12517
喝	-12518
罪	-12519
模	-12520
顿	-12521
怪	-12522
付	-12523
五	-12524
获	-12525
激	-12526
药	-12527
印	-12528
半	-12529
史	-12530
弟	-12531
深	-12532
举	-12533
营	-12534
列	-12535
票	-12536
置	-12537
监	-12538
蛋	-12539
班	-12540
危	-12541
某	-12542
继	-12543
礼	-12544
庭	-12545
职	-12546
睡	-12547
百	-12548
境	-12549
讨	-12550
钟	-12551
源	-12552
k	-12553
连	-12554
油	-12555
弄	-12556
破	-12557
录	-12558
仍	-12559
独	-12560
环	-12561
股	-12562
细	-12563
%	-12564
括	-12565
态	-12566
石	-12567
毒	-12568
众	-12569
恩	-12570
板	-12571
简	-12572
故	-12573
配	-12574
择	-12575
检	-12576
差	-12577
例	-12578
福	-12579
博	-12580
讲	-12581
货	-12582
富	-12583
企	-12584
岁	-12585
弹	-12586
换	-12587
款	-12588
段	-12589
压	-12590
伦	-12591
帝	-12592
策	-12593
落	-12594
习	-12595
圣	-12596
跑	-12597
状	-12598
微	-12599
搞	-12600
围	-12601
纪	-12602
严	-12603
歌	-12604
旅	-12605
舞	-12606
党	-12607
套	-12608
船	-12609
忙	-12610
角	-12611
育	-12612
嘛	-12613
突	-12614
姆	-12615
索	-12616
王	-12617
减	-12618
拜	-12619
疑	-12620
负	-12621
广	-12622
f	-12623
探	-12624
疗	-12625
素	-12626
y	-12627
街	-12628
卖	-12629
恶	-12630
卫	-12631
静	-12632
馆	-12633
趣	-12634
织	-12635
古	-12636
答	-12637
采	-12638
莱	-12639
养	-12640
念	-12641
倒	-12642
修	-12643
伯	-12644
防	-12645
双	-12646
限	-12647
抓	-12648
评	-12649
夜	-12650
戏	-12651
忘	-12652
升	-12653
释	-12654
居	-12655
·	-12656
刻	-12657
洛	-12658
冷	-12659
甚	-12660
土	-12661
皮	-12662
雷	-12663
降	-12664
混	-12665
幸	-12666
移	-12667
迪	-12668
诺	-12669
较	-12670
兄	-12671
冲	-12672
财	-12673
园	-12674
私	-12675
午	-12676
亮	-12677
恐	-12678
协	-12679
射	-12680
森	-12681
棒	-12682
退	-12683
销	-12684
跳	-12685
偷	-12686
析	-12687
势	-12688
丽	-12689
拥	-12690
块	-12691
休	-12692
画	-12693
顾	-12694
怀	-12695
萨	-12696
读	-12697
吉	-12698
啦	-12699
充	-12700
麻	-12701
享	-12702
永	-12703
束	-12704
烦	-12705
沙	-12706
群	-12707
痛	-12708
购	-12709
w	-12710
楚	-12711
依	-12712
景	-12713
层	-12714
闻	-12715
冰	-12716
楼	-12717
族	-12718
按	-12719
惊	-12720
背	-12721
虑	-12722
优	-12723
唯	-12724
红	-12725
洗	-12726
拍	-12727
练	-12728
温	-12729
姐	-12730
梦	-12731
靠	-12732
灵	-12733
益	-12734
六	-12735
塔	-12736
乱	-12737
临	-12738
融	-12739
香	-12740
售	-12741
勒	-12742
敢	-12743
松	-12744
饭	-12745
千	-12746
域	-12747
狗	-12748
急	-12749
寻	-12750
互	-12751
疯	-12752
码	-12753
座	-12754
介	-12755
秘	-12756
判	-12757
追	-12758
箱	-12759
剧	-12760
昨	-12761
遇	-12762
暴	-12763
鱼	-12764
志	-12765
嗨	-12766
属	-12767
架	-12768
竞	-12769
健	-12770
核	-12771
劳	-12772
脱	-12773
鬼	-12774
误	-12775
杂	-12776
杯	-12777
困	-12778
距	-12779
迷	-12780
康	-12781
藏	-12782
苦	-12783
汽	-12784
糟	-12785
抗	-12786
杰	-12787
咱	-12788
醒	-12789
v	-12790
烟	-12791
善	-12792
艺	-12793
露	-12794
坦	-12795
脸	-12796
妻	-12797
曼	-12798
败	-12799
坚	-12800
牛	-12801
守	-12802
异	-12803
农	-12804
执	-12805
努	-12806
弗	-12807
《	-12808
》	-12809
树	-12810
课	-12811
弃	-12812
慢	-12813
奶	-12814
初	-12815
审	-12816
范	-12817
武	-12818
肉	-12819
巨	-12820
苏	-12821
呼	-12822
逃	-12823
岛	-12824
债	-12825
牌	-12826
麦	-12827
额	-12828
唱	-12829
啡	-12830
牙	-12831
斗	-12832
脚	-12833
蒂	-12834
宣	-12835
咖	-12836
短	-12837
述	-12838
呀	-12839
俩	-12840
塞	-12841
瑞	-12842
税	-12843
赢	-12844
附	-12845
词	-12846
鲁	-12847
炸	-12848
凯	-12849
缺	-12850
戴	-12851
略	-12852
赶	-12853
航	-12854
阳	-12855
河	-12856
毛	-12857
亡	-12858
委	-12859
乔	-12860
症	-12861
避	-12862
损	-12863
笔	-12864
智	-12865
胜	-12866
库	-12867
席	-12868
尤	-12869
毁	-12870
屋	-12871
漂	-12872
革	-12873
登	-12874
序	-12875
般	-12876
遗	-12877
借	-12878
签	-12879
朝	-12880
懂	-12881
辆	-12882
络	-12883
训	-12884
—	-12885
嘴	-12886
右	-12887
狂	-12888
妹	-12889
厌	-12890
软	-12891
批	-12892
左	-12893
堂	-12894
纸	-12895
闭	-12896
补	-12897
俄	-12898
厅	-12899
顶	-12900
艾	-12901
浪	-12902
季	-12903
铁	-12904
挺	-12905
摩	-12906
骨	-12907
尸	-12908
轮	-12909
兵	-12910
八	-12911
染	-12912
盛	-12913
狱	-12914
爆	-12915
亿	-12916
丝	-12917
耶	-12918
埃	-12919
输	-12920
阻	-12921
木	-12922
含	-12923
镇	-12924
脏	-12925
草	-12926
散	-12927
鲜	-12928
盖	-12929
呆	-12930
糕	-12931
野	-12932
纽	-12933
征	-12934
谷	-12935
招	-12936
暗	-12937
版	-12938
谋	-12939
虽	-12940
挑	-12941
透	-12942
撒	-12943
迹	-12944
盟	-12945
踪	-12946
旧	-12947
良	-12948
聚	-12949
既	-12950
积	-12951
访	-12952
占	-12953
迎	-12954
禁	-12955
菲	-12956
伴	-12957
捕	-12958
奖	-12959
著	-12960
舒	-12961
冒	-12962
句	-12963
播	-12964
泰	-12965
韦	-12966
归	-12967
骗	-12968
莫	-12969
刺	-12970
币	-12971
尝	-12972
碰	-12973
章	-12974
黄	-12975
封	-12976
聊	-12977
谎	-12978
省	-12979
估	-12980
替	-12981
鸡	-12982
佛	-12983
顺	-12984
京	-12985
贷	-12986
遍	-12987
植	-12988
玛	-12989
朗	-12990
菜	-12991
港	-12992
默	-12993
傻	-12994
丢	-12995
典	-12996
弱	-12997
端	-12998
攻	-12999
啥	-13000
洋	-13001
蒙	-13002
熟	-13003
曲	-13004
盘	-13005
娘	-13006
烈	-13007
概	-13008
魔	-13009
丹	-13010
操	-13011
汉	-13012
浴	-13013
丈	-13014
编	-13015
•	-13016
凶	-13017
妇	-13018
液	-13019
青	-13020
巧	-13021
村	-13022
遭	-13023
摄	-13024
童	-13025
迫	-13026
灯	-13027
贵	-13028
稳	-13029
折	-13030
竟	-13031
频	-13032
娜	-13033
烧	-13034
拒	-13035
固	-13036
针	-13037
厂	-13038
掌	-13039
镜	-13040
雅	-13041
/	-13042
糖	-13043
七	-13044
瓦	-13045
毫	-13046
耳	-13047
翻	-13048
授	-13049
材	-13050
胡	-13051
均	-13052
吓	-13053
雇	-13054
缩	-13055
喂	-13056
扰	-13057
隐	-13058
租	-13059
饼	-13060
障	-13061
旦	-13062
帕	-13063
桌	-13064
筑	-13065
雪	-13066
驶	-13067
夏	-13068
抽	-13069
剂	-13070
誓	-13071
媒	-13072
胞	-13073
窗	-13074
陷	-13075
C	-13076
龙	-13077
S	-13078
徒	-13079
若	-13080
彩	-13081
搜	-13082
池	-13083
滑	-13084
沉	-13085
祝	-13086
措	-13087
末	-13088
储	-13089
敦	-13090
袭	-13091
陆	-13092
副	-13093
荣	-13094
宽	-13095
迟	-13096
睛	-13097
猜	-13098
毕	-13099
允	-13100
恋	-13101
邮	-13102
莉	-13103
雨	-13104
患	-13105
裁	-13106
丰	-13107
尊	-13108
袋	-13109
锁	-13110
A	-13111
触	-13112
挥	-13113
诚	-13114
赌	-13115
蠢	-13116
梅	-13117
抢	-13118
邦	-13119
旁	-13120
潜	-13121
途	-13122
档	-13123
沃	-13124
忍	-13125
硬	-13126
键	-13127
阶	-13128
酸	-13129
描	-13130
抵	-13131
丁	-13132
余	-13133
胁	-13134
刀	-13135
陪	-13136
订	-13137
申	-13138
宗	-13139
敌	-13140
洞	-13141
搬	-13142
彼	-13143
摆	-13144
延	-13145
九	-13146
扔	-13147
贸	-13148
残	-13149
扩	-13150
忆	-13151
券	-13152
扎	-13153
碍	-13154
腿	-13155
鞋	-13156
赞	-13157
撞	-13158
予	-13159
培	-13160
尚	-13161
堡	-13162
零	-13163
础	-13164
鸟	-13165
汇	-13166
屁	-13167
悲	-13168
粉	-13169
绿	-13170
P	-13171
聪	-13172
鼓	-13173
废	-13174
搭	-13175
灭	-13176
诞	-13177
婆	-13178
启	-13179
佳	-13180
累	-13181
叶	-13182
促	-13183
墙	-13184
茶	-13185
赖	-13186
拖	-13187
雄	-13188
虫	-13189
虚	-13190
缓	-13191
饮	-13192
净	-13193
碎	-13194
震	-13195
伟	-13196
宁	-13197
偶	-13198
央	-13199
倍	-13200
j	-13201
皇	-13202
宾	-13203
逐	-13204
吹	-13205
泡	-13206
灾	-13207
奋	-13208
庆	-13209
违	-13210
泳	-13211
湾	-13212
豪	-13213
翰	-13214
勇	-13215
载	-13216
岸	-13217
李	-13218
秀	-13219
剩	-13220
哭	-13221
甜	-13222
鼠	-13223
x	-13224
漫	-13225
怒	-13226
孤	-13227
卷	-13228
幕	-13229
握	-13230
M	-13231
戒	-13232
刑	-13233
墨	-13234
滚	-13235
讯	-13236
贴	-13237
宫	-13238
莎	-13239
惯	-13240
瓶	-13241
迈	-13242
沿	-13243
F	-13244
堆	-13245
挂	-13246
乘	-13247
湖	-13248
涉	-13249
燃	-13250
寸	-13251
恨	-13252
蓝	-13253
妮	-13254
绍	-13255
援	-13256
献	-13257
偏	-13258
疾	-13259
绪	-13260
怖	-13261
醉	-13262
渐	-13263
督	-13264
阴	-13265
幅	-13266
倾	-13267
田	-13268
嫌	-13269
罚	-13270
辩	-13271
圈	-13272
仔	-13273
裂	-13274
猫	-13275
稍	-13276
隔	-13277
兹	-13278
衡	-13279
敬	-13280
闹	-13281
B	-13282
祖	-13283
敏	-13284
谓	-13285
污	-13286
汤	-13287
侵	-13288
恢	-13289
犹	-13290
尺	-13291
姑	-13292
裤	-13293
邻	-13294
扫	-13295
闪	-13296
励	-13297
尾	-13298
吵	-13299
云	-13300
脉	-13301
彻	-13302
魂	-13303
穆	-13304
乡	-13305
劲	-13306
酷	-13307
骑	-13308
幻	-13309
忧	-13310
甲	-13311
z	-13312
妙	-13313
驾	-13314
矿	-13315
符	-13316
寄	-13317
径	-13318
仪	-13319
繁	-13320
佩	-13321
厨	-13322
春	-13323
黎	-13324
喔	-13325
汗	-13326
孕	-13327
询	-13328
诊	-13329
摇	-13330
纹	-13331
洁	-13332
肥	-13333
账	-13334
苹	-13335
烂	-13336
叔	-13337
夺	-13338
吻	-13339
胸	-13340
T	-13341
阵	-13342
尿	-13343
炉	-13344
诗	-13345
瓜	-13346
扮	-13347
赏	-13348
磨	-13349
凡	-13350
逊	-13351
胎	-13352
颗	-13353
辞	-13354
饰	-13355
叛	-13356
猎	-13357
潮	-13358
绑	-13359
伍	-13360
穷	-13361
赫	-13362
辛	-13363
劫	-13364
瑟	-13365
缘	-13366
纯	-13367
暂	-13368
宇	-13369
偿	-13370
怜	-13371
闲	-13372
霍	-13373
桑	-13374
晨	-13375
桥	-13376
卢	-13377
菌	-13378
齐	-13379
垃	-13380
冠	-13381
牢	-13382
圾	-13383
瞧	-13384
宜	-13385
龄	-13386
俱	-13387
丧	-13388
抛	-13389
椅	-13390
氧	-13391
欲	-13392
页	-13393
逼	-13394
插	-13395
灰	-13396
衰	-13397
侧	-13398
韩	-13399
绕	-13400
暖	-13401
邀	-13402
尖	-13403
欠	-13404
怨	-13405
忠	-13406
羊	-13407
腊	-13408
躲	-13409
爷	-13410
秒	-13411
涨	-13412
癌	-13413
殊	-13414
篇	-13415
乏	-13416
圆	-13417
泛	-13418
耐	-13419
猪	-13420
削	-13421
押	-13422
忽	-13423
惧	-13424
疼	-13425
愚	-13426
壁	-13427
迅	-13428
厚	-13429
链	-13430
胆	-13431
赚	-13432
钢	-13433
匹	-13434
饿	-13435
丑	-13436
寓	-13437
唐	-13438
E	-13439
厉	-13440
荷	-13441
贫	-13442
乌	-13443
署	-13444
董	-13445
喷	-13446
址	-13447
润	-13448
惹	-13449
扣	-13450
笨	-13451
仰	-13452
跌	-13453
吐	-13454
诸	-13455
滩	-13456
辑	-13457
哇	-13458
摸	-13459
卧	-13460
匙	-13461
澳	-13462
诱	-13463
撤	-13464
葡	-13465
辈	-13466
阅	-13467
返	-13468
D	-13469
帐	-13470
欺	-13471
焦	-13472
虎	-13473
糊	-13474
W	-13475
萄	-13476
颜	-13477
荒	-13478
钥	-13479
凭	-13480
啤	-13481
埋	-13482
臭	-13483
爵	-13484
勃	-13485
扬	-13486
戈	-13487
逮	-13488
泽	-13489
乳	-13490
珍	-13491
召	-13492
驱	-13493
盗	-13494
荡	-13495
鼻	-13496
塑	-13497
杉	-13498
愤	-13499
肌	-13500
肠	-13501
肤	-13502
胀	-13503
览	-13504
痴	-13505
抑	-13506
梯	-13507
腐	-13508
惠	-13509
旗	-13510
貌	-13511
砸	-13512
柜	-13513
欣	-13514
隆	-13515
疫	-13516
姻	-13517
眠	-13518
'	-13519
振	-13520
恰	-13521
淡	-13522
帽	-13523
烤	-13524
掩	-13525
昂	-13526
琳	-13527
钻	-13528
册	-13529
I	-13530
奏	-13531
粗	-13532
晶	-13533
译	-13534
薪	-13535
谅	-13536
趋	-13537
伸	-13538
漏	-13539
陈	-13540
傲	-13541
扯	-13542
绩	-13543
仿	-13544
誉	-13545
爬	-13546
婴	-13547
胶	-13548
罢	-13549
轨	-13550
盯	-13551
悉	-13552
盒	-13553
摘	-13554
淋	-13555
峰	-13556
旋	-13557
愉	-13558
宿	-13559
捐	-13560
薄	-13561
鉴	-13562
祷	-13563
拟	-13564
壮	-13565
惜	-13566
冬	-13567
擦	-13568
於	-13569
映	-13570
冻	-13571
江	-13572
舰	-13573
宙	-13574
挖	-13575
矶	-13576
综	-13577
豆	-13578
夹	-13579
岩	-13580
渴	-13581
杜	-13582
芬	-13583
涂	-13584
玻	-13585
痕	-13586
艰	-13587
躺	-13588
悔	-13589
浮	-13590
琴	-13591
珠	-13592
茨	-13593
慈	-13594
汁	-13595
遵	-13596
割	-13597
熊	-13598
截	-13599
庄	-13600
递	-13601
廉	-13602
拼	-13603
揭	-13604
敲	-13605
舍	-13606
秋	-13607
惑	-13608
拳	-13609
纵	-13610
县	-13611
耗	-13612
葬	-13613
伪	-13614
脂	-13615
详	-13616
廊	-13617
泥	-13618
牧	-13619
袖	-13620
G	-13621
蜜	-13622
柔	-13623
祈	-13624
窃	-13625
缸	-13626
愈	-13627
坡	-13628
孔	-13629
恒	-13630
挤	-13631
R	-13632
宠	-13633
姓	-13634
N	-13635
炎	-13636
筹	-13637
泄	-13638
狼	-13639
宴	-13640
纷	-13641
羞	-13642
牲	-13643
兽	-13644
腾	-13645
巡	-13646
跨	-13647
仓	-13648
刷	-13649
覆	-13650
咬	-13651
湿	-13652
胖	-13653
喊	-13654
惨	-13655
敞	-13656
俗	-13657
赋	-13658
帅	-13659
拔	-13660
胃	-13661
昏	-13662
拾	-13663
牵	-13664
O	-13665
憾	-13666
乖	-13667
L	-13668
肿	-13669
填	-13670
伏	-13671
璃	-13672
磁	-13673
屏	-13674
幽	-13675
杆	-13676
谱	-13677
娃	-13678
仇	-13679
循	-13680
撑	-13681
膜	-13682
殖	-13683
碳	-13684
玉	-13685
横	-13686
肺	-13687
踢	-13688
夸	-13689
遥	-13690
拆	-13691
浓	-13692
挡	-13693
肩	-13694
脆	-13695
朵	-13696
粒	-13697
郁	-13698
–	-13699
孙	-13700
侦	-13701
缝	-13702
铺	-13703
剑	-13704
尘	-13705
齿	-13706
拯	-13707
呈	-13708
鲍	-13709
崩	-13710
扭	-13711
辱	-13712
嫁	-13713
渡	-13714
猛	-13715
臂	-13716
勤	-13717
翼	-13718
幼	-13719
艘	-13720
赤	-13721
耍	-13722
抬	-13723
墓	-13724
挣	-13725
爽	-13726
捷	-13727
盐	-13728
柏	-13729
剪	-13730
惩	-13731
篮	-13732
奉	-13733
咨	-13734
哲	-13735
沟	-13736
芝	-13737
奴	-13738
瘤	-13739
炼	-13740
擅	-13741
堪	-13742
披	-13743
番	-13744
恭	-13745
泪	-13746
箭	-13747
兼	-13748
慰	-13749
漠	-13750
凌	-13751
捉	-13752
耀	-13753
疲	-13754
井	-13755
役	-13756
甘	-13757
跃	-13758
邪	-13759
君	-13760
添	-13761
歇	-13762
炮	-13763
慧	-13764
绘	-13765
腹	-13766
阁	-13767
吞	-13768
摔	-13769
蹈	-13770
娱	-13771
澡	-13772
厕	-13773
裙	-13774
肚	-13775
慌	-13776
叉	-13777
弯	-13778
奈	-13779
灌	-13780
奔	-13781
牺	-13782
恼	-13783
逻	-13784
滴	-13785
稣	-13786
纠	-13787
讶	-13788
刊	-13789
蛇	-13790
贡	-13791
郎	-13792
仁	-13793
氏	-13794
蜂	-13795
唔	-13796
垫	-13797
闯	-13798
晓	-13799
骄	-13800
亨	-13801
叙	-13802
贩	-13803
盾	-13804
聘	-13805
咒	-13806
罕	-13807
赠	-13808
凝	-13809
抚	-13810
籍	-13811
歧	-13812
溃	-13813
赔	-13814
械	-13815
弥	-13816
洪	-13817
栏	-13818
拨	-13819
煤	-13820
稀	-13821
辅	-13822
辣	-13823
H	-13824
擎	-13825
绳	-13826
迁	-13827
催	-13828
溜	-13829
庞	-13830
唤	-13831
旨	-13832
讼	-13833
骚	-13834
祸	-13835
踏	-13836
桶	-13837
驻	-13838
尉	-13839
朱	-13840
谨	-13841
悬	-13842
肝	-13843
寒	-13844
慎	-13845
巫	-13846
舌	-13847
妓	-13848
罐	-13849
熨	-13850
凉	-13851
壳	-13852
艇	-13853
奸	-13854
妥	-13855
晕	-13856
魅	-13857
践	-13858
呐	-13859
詹	-13860
嘉	-13861
泉	-13862
诈	-13863
矩	-13864
腰	-13865
缠	-13866
崇	-13867
囊	-13868
届	-13869
滋	-13870
盈	-13871
纤	-13872
衫	-13873
辨	-13874
兔	-13875
妆	-13876
宅	-13877
携	-13878
柯	-13879
逆	-13880
疏	-13881
雕	-13882
腺	-13883
荐	-13884
酬	-13885
寿	-13886
津	-13887
辜	-13888
忌	-13889
猴	-13890
垂	-13891
饱	-13892
佣	-13893
矛	-13894
瞎	-13895
陌	-13896
侣	-13897
吊	-13898
拘	-13899
蓄	-13900
劝	-13901
粘	-13902
瞒	-13903
柱	-13904
紫	-13905
腔	-13906
苗	-13907
岗	-13908
巾	-13909
扶	-13910
竭	-13911
膀	-13912
丛	-13913
斥	-13914
卑	-13915
毯	-13916
罩	-13917
衬	-13918
宏	-13919
亏	-13920
悦	-13921
坛	-13922
狠	-13923
粮	-13924
铜	-13925
氛	-13926
裸	-13927
坎	-13928
趟	-13929
浅	-13930
姿	-13931
厄	-13932
川	-13933
耻	-13934
犬	-13935
殿	-13936
舱	-13937
肾	-13938
坞	-13939
妒	-13940
扇	-13941
雾	-13942
瘾	-13943
祭	-13944
倦	-13945
霉	-13946
宪	-13947
酱	-13948
钓	-13949
勾	-13950
屈	-13951
枝	-13952
奢	-13953
斑	-13954
贾	-13955
仙	-13956
囚	-13957
闷	-13958
婊	-13959
笼	-13960
骂	-13961
咪	-13962
谍	-13963
嘘	-13964
拓	-13965
嘲	-13966
炒	-13967
堵	-13968
膨	-13969
V	-13970
稿	-13971
蕾	-13972
坠	-13973
沫	-13974
棍	-13975
脖	-13976
摧	-13977
劣	-13978
哀	-13979
壤	-13980
御	-13981
佐	-13982
窝	-13983
僵	-13984
募	-13985
蒸	-13986
锋	-13987
框	-13988
甩	-13989
臣	-13990
猩	-13991
贱	-13992
栋	-13993
醇	-13994
尴	-13995
尬	-13996
粹	-13997
轰	-13998
亦	-13999
卵	-14000
虐	-14001
峡	-14002
廷	-14003
穴	-14004
贯	-14005
q	-14006
桃	-14007
磅	-14008
卜	-14009
涯	-14010
珊	-14011
晃	-14012
淘	-14013
昆	-14014
隶	-14015
贺	-14016
逛	-14017
刮	-14018
剥	-14019
唇	-14020
嫉	-14021
挪	-14022
碗	-14023
赐	-14024
镑	-14025
串	-14026
契	-14027
狮	-14028
妞	-14029
铃	-14030
贼	-14031
贪	-14032
撕	-14033
渔	-14034
畅	-14035
鹰	-14036
乃	-14037
悄	-14038
挽	-14039
掘	-14040
膝	-14041
阔	-14042
懒	-14043
肃	-14044
酪	-14045
恕	-14046
悠	-14047
砍	-14048
谊	-14049
屎	-14050
盲	-14051
搅	-14052
卓	-14053
妨	-14054
宰	-14055
枚	-14056
遣	-14057
「	-14058
」	-14059
挨	-14060
扑	-14061
漆	-14062
衷	-14063
喉	-14064
屠	-14065
谐	-14066
饥	-14067
佬	-14068
晰	-14069
肢	-14070
脊	-14071
仗	-14072
涌	-14073
脾	-14074
眉	-14075
辐	-14076
榜	-14077
咯	-14078
滥	-14079
抹	-14080
锻	-14081
垒	-14082
娅	-14083
娶	-14084
&	-14085
履	-14086
乙	-14087
鹅	-14088
哼	-14089
旺	-14090
瘦	-14091
伐	-14092
吁	-14093
蛮	-14094
钉	-14095
盆	-14096
煮	-14097
刘	-14098
孟	-14099
慕	-14100
颠	-14101
葛	-14102
颇	-14103
麽	-14104
拐	-14105
裔	-14106
搏	-14107
萝	-14108
斜	-14109
芭	-14110
删	-14111
棉	-14112
讽	-14113
郊	-14114
丘	-14115
肪	-14116
遮	-14117
溶	-14118
畏	-14119
裹	-14120
捡	-14121
浦	-14122
螺	-14123
郡	-14124
飘	-14125
攀	-14126
潘	-14127
逝	-14128
蔬	-14129
逗	-14130
愧	-14131
仆	-14132
塌	-14133
煎	-14134
梁	-14135
瑰	-14136
黛	-14137
榄	-14138
滞	-14139
蜡	-14140
赎	-14141
锐	-14142
颈	-14143
鹿	-14144
阐	-14145
U	-14146
橡	-14147
凑	-14148
沮	-14149
驳	-14150
矮	-14151
坑	-14152
胳	-14153
锅	-14154
陶	-14155
橄	-14156
泊	-14157
琼	-14158
辉	-14159
拦	-14160
挫	-14161
熬	-14162
睁	-14163
瞬	-14164
鲸	-14165
K	-14166
浆	-14167
珀	-14168
肖	-14169
苍	-14170
裕	-14171
莓	-14172
妄	-14173
柴	-14174
皆	-14175
缴	-14176
匆	-14177
棕	-14178
浑	-14179
佑	-14180
摊	-14181
枕	-14182
玫	-14183
袜	-14184
躁	-14185
‘	-14186
叹	-14187
膊	-14188
浏	-14189
兆	-14190
唉	-14191
寺	-14192
兑	-14193
寂	-14194
寡	-14195
甸	-14196
筋	-14197
翅	-14198
喘	-14199
抖	-14200
踩	-14201
匪	-14202
喻	-14203
爹	-14204
锡	-14205
兜	-14206
揍	-14207
浸	-14208
芯	-14209
绵	-14210
缅	-14211
翁	-14212
扁	-14213
狭	-14214
谴	-14215
夕	-14216
夷	-14217
篷	-14218
侠	-14219
秩	-14220
钩	-14221
噪	-14222
涵	-14223
颁	-14224
砖	-14225
堕	-14226
弊	-14227
棋	-14228
莲	-14229
谬	-14230
卸	-14231
狄	-14232
茄	-14233
贿	-14234
冈	-14235
叠	-14236
汀	-14237
鸭	-14238
薯	-14239
奎	-14240
巢	-14241
沾	-14242
锦	-14243
鸣	-14244
烛	-14245
捣	-14246
诡	-14247
膏	-14248
晒	-14249
棵	-14250
洒	-14251
诅	-14252
咋	-14253
剖	-14254
畜	-14255
疚	-14256
酶	-14257
旱	-14258
霸	-14259
丸	-14260
匿	-14261
蔽	-14262
蚀	-14263
轴	-14264
痒	-14265
筒	-14266
伞	-14267
鄙	-14268
铅	-14269
巷	-14270
晋	-14271
侮	-14272
虾	-14273
庙	-14274
碑	-14275
桩	-14276
槟	-14277
淹	-14278
盼	-14279
茜	-14280
蛛	-14281
僚	-14282
毙	-14283
藉	-14284
噩	-14285
溢	-14286
芳	-14287
姨	-14288
汰	-14289
纱	-14290
羽	-14291
赴	-14292
橱	-14293
肆	-14294
炭	-14295
豫	-14296
鲨	-14297
~	-14298
倡	-14299
嫩	-14300
杨	-14301
衍	-14302
趁	-14303
匠	-14304
慨	-14305
枯	-14306
烹	-14307
顽	-14308
骤	-14309
悟	-14310
陛	-14311
谜	-14312
迄	-14313
梭	-14314
淫	-14315
腕	-14316
豹	-14317
厦	-14318
梳	-14319
侍	-14320
俊	-14321
垮	-14322
搁	-14323
凤	-14324
泣	-14325
颤	-14326
侈	-14327
坟	-14328
朴	-14329
燕	-14330
硅	-14331
藤	-14332
渗	-14333
皱	-14334
滤	-14335
碟	-14336
芒	-14337
贬	-14338
棘	-14339
燥	-14340
髓	-14341
龟	-14342
吼	-14343
氢	-14344
泼	-14345
萧	-14346
铝	-14347
勋	-14348
吨	-14349
琪	-14350
轿	-14351
函	-14352
槽	-14353
滨	-14354
雌	-14355
鸦	-14356
稻	-14357
谣	-14358
J	-14359
呕	-14360
耕	-14361
肮	-14362
钮	-14363
伽	-14364
戚	-14365
绅	-14366
驰	-14367
庇	-14368
竹	-14369
芙	-14370
’	-14371
瓷	-14372
窄	-14373
饶	-14374
馈	-14375
厢	-14376
禽	-14377
掠	-14378
棚	-14379
睹	-14380
酿	-14381
抄	-14382
嚼	-14383
屿	-14384
捞	-14385
艳	-14386
呵	-14387
祥	-14388
茫	-14389
辖	-14390
阱	-14391
哨	-14392
暑	-14393
炫	-14394
趴	-14395
渠	-14396
钞	-14397
咽	-14398
喀	-14399
歪	-14400
憎	-14401
渣	-14402
弦	-14403
彭	-14404
慷	-14405
蹲	-14406
隧	-14407
壶	-14408
愁	-14409
烫	-14410
粪	-14411
蓬	-14412
蔓	-14413
雀	-14414
霜	-14415
啸	-14416
帆	-14417
溪	-14418
绒	-14419
葱	-14420
帘	-14421
柄	-14422
栽	-14423
淇	-14424
趾	-14425
咙	-14426
哟	-14427
斤	-14428
溯	-14429
盔	-14430
瞄	-14431
硕	-14432
椎	-14433
芽	-14434
仲	-14435
捅	-14436
涡	-14437
陋	-14438
鸽	-14439
仑	-14440
坪	-14441
庸	-14442
徽	-14443
饲	-14444
冥	-14445
吴	-14446
嚷	-14447
懦	-14448
蝶	-14449
跪	-14450
掏	-14451
焰	-14452
翘	-14453
萎	-14454
哎	-14455
碱	-14456
蚁	-14457
嗓	-14458
妖	-14459
捏	-14460
椒	-14461
稽	-14462
叨	-14463
拷	-14464
氨	-14465
狐	-14466
缉	-14467
哄	-14468
硫	-14469
缆	-14470
兮	-14471
刹	-14472
屉	-14473
昧	-14474
曝	-14475
烘	-14476
俯	-14477
勉	-14478
氯	-14479
秃	-14480
锯	-14481
坝	-14482
茅	-14483
铐	-14484
镖	-14485
忏	-14486
株	-14487
浩	-14488
蜘	-14489
飙	-14490
丫	-14491
栖	-14492
橙	-14493
涅	-14494
驴	-14495
剔	-14496
疤	-14497
谦	-14498
乞	-14499
扳	-14500
簿	-14501
赂	-14502
陵	-14503
瘫	-14504
肋	-14505
馅	-14506
墅	-14507
崖	-14508
翔	-14509
靴	-14510
胺	-14511
掷	-14512
癖	-14513
碌	-14514
飓	-14515
柠	-14516
檬	-14517
袍	-14518
垄	-14519
屑	-14520
茎	-14521
嘱	-14522
悼	-14523
饪	-14524
疹	-14525
耽	-14526
胰	-14527
豁	-14528
呗	-14529
唬	-14530
栓	-14531
瀑	-14532
爪	-14533
薇	-14534
酵	-14535
阀	-14536
儒	-14537
嵌	-14538
昔	-14539
氮	-14540
舟	-14541
逸	-14542
侄	-14543
哑	-14544
塘	-14545
沼	-14546
熏	-14547
蝇	-14548
斐	-14549
碧	-14550
窒	-14551
寨	-14552
拙	-14553
撰	-14554
烯	-14555
捆	-14556
眨	-14557
逢	-14558
捧	-14559
皂	-14560
臀	-14561
藻	-14562
匈	-14563
咐	-14564
颅	-14565
凸	-14566
幢	-14567
杠	-14568
棺	-14569
姬	-14570
虹	-14571
蹦	-14572
邓	-14573
铭	-14574
挠	-14575
筛	-14576
钝	-14577
颂	-14578
饵	-14579
厘	-14580
豚	-14581
俘	-14582
剃	-14583
喇	-14584
晤	-14585
浇	-14586
纺	-14587
丙	-14588
宵	-14589
晴	-14590
泌	-14591
咳	-14592
绞	-14593
赦	-14594
醋	-14595
Y	-14596
哺	-14597
坊	-14598
恳	-14599
砂	-14600
酗	-14601
钦	-14602
鞭	-14603
驼	-14604
哮	-14605
溺	-14606
翠	-14607
蝠	-14608
衔	-14609
嗜	-14610
癫	-14611
蛙	-14612
酮	-14613
傅	-14614
寞	-14615
熄	-14616
缚	-14617
蝴	-14618
褐	-14619
逾	-14620
戳	-14621
斧	-14622
沦	-14623
僧	-14624
泵	-14625
狡	-14626
窥	-14627
锤	-14628
弓	-14629
挚	-14630
煌	-14631
贞	-14632
躯	-14633
亥	-14634
崔	-14635
焚	-14636
铲	-14637
鸿	-14638
吩	-14639
氓	-14640
胚	-14641
舔	-14642
茂	-14643
馨	-14644
魁	-14645
*	-14646
凳	-14647
嗑	-14648
熔	-14649
腥	-14650
蝙	-14651
陀	-14652
喧	-14653
疆	-14654
侯	-14655
咸	-14656
崛	-14657
杖	-14658
琐	-14659
竖	-14660
聋	-14661
酯	-14662
韵	-14663
咎	-14664
撇	-14665
狸	-14666
稚	-14667
蕉	-14668
髦	-14669
勘	-14670
岭	-14671
柳	-14672
窟	-14673
卦	-14674
旷	-14675
耸	-14676
苛	-14677
虔	-14678
赁	-14679
迦	-14680
桂	-14681
窍	-14682
遏	-14683
骸	-14684
X	-14685
苯	-14686
隙	-14687
渊	-14688
钙	-14689
亭	-14690
婪	-14691
惕	-14692
懈	-14693
掀	-14694
柬	-14695
狙	-14696
舅	-14697
菊	-14698
鳄	-14699
叮	-14700
峻	-14701
焕	-14702
痪	-14703
礁	-14704
聆	-14705
媚	-14706
抨	-14707
濒	-14708
嗅	-14709
昭	-14710
澄	-14711
凿	-14712
娇	-14713
岔	-14714
拽	-14715
瑚	-14716
蚂	-14717
跤	-14718
黏	-14719
悍	-14720
拇	-14721
缔	-14722
铸	-14723
巩	-14724
扼	-14725
磷	-14726
膛	-14727
宋	-14728
帖	-14729
狩	-14730
瓣	-14731
粥	-14732
亩	-14733
嗡	-14734
堤	-14735
拱	-14736
舶	-14737
嚣	-14738
揽	-14739
旬	-14740
歹	-14741
笛	-14742
绊	-14743
羡	-14744
苔	-14745
诫	-14746
谤	-14747
踝	-14748
颖	-14749
榴	-14750
淀	-14751
秦	-14752
诀	-14753
贤	-14754
辟	-14755
刃	-14756
徊	-14757
徘	-14758
殴	-14759
辙	-14760
+	-14761
唠	-14762
悯	-14763
沈	-14764
肴	-14765
觅	-14766
勿	-14767
栅	-14768
瑜	-14769
荧	-14770
铀	-14771
掐	-14772
掺	-14773
撼	-14774
昌	-14775
梗	-14776
畸	-14777
腻	-14778
蟹	-14779
酋	-14780
靶	-14781
倘	-14782
沸	-14783
硝	-14784
蚊	-14785
钠	-14786
$	-14787
冤	-14788
拌	-14789
涛	-14790
溅	-14791
纲	-14792
绷	-14793
驯	-14794
噬	-14795
弈	-14796
煽	-14797
蕴	-14798
迭	-14799
喽	-14800
嬉	-14801
後	-14802
捍	-14803
敷	-14804
橘	-14805
沛	-14806
焊	-14807
瞪	-14808
蒜	-14809
亵	-14810
哩	-14811
啰	-14812
圳	-14813
惟	-14814
渎	-14815
肘	-14816
蔑	-14817
傍	-14818
冯	-14819
匀	-14820
吟	-14821
惰	-14822
抉	-14823
乾	-14824
凰	-14825
劈	-14826
栗	-14827
椰	-14828
榈	-14829
泻	-14830
菇	-14831
勺	-14832
樱	-14833
猾	-14834
蹄	-14835
喋	-14836
绰	-14837
绸	-14838
荫	-14839
崽	-14840
惫	-14841
梨	-14842
糙	-14843
萌	-14844
遂	-14845
钾	-14846
韧	-14847
伺	-14848
吾	-14849
嗽	-14850
孽	-14851
疮	-14852
耿	-14853
衅	-14854
锈	-14855
屡	-14856
戮	-14857
拢	-14858
渺	-14859
诽	-14860
魏	-14861
僻	-14862
呜	-14863
唾	-14864
彰	-14865
杏	-14866
猿	-14867
骆	-14868
鼎	-14869
卒	-14870
卿	-14871
叭	-14872
徐	-14873
曹	-14874
洽	-14875
紊	-14876
帜	-14877
朽	-14878
梵	-14879
烁	-14880
琢	-14881
痫	-14882
舆	-14883
恤	-14884
榨	-14885
熙	-14886
瘟	-14887
睾	-14888
禅	-14889
秽	-14890
郭	-14891
墟	-14892
岂	-14893
逞	-14894
婉	-14895
斩	-14896
烷	-14897
犀	-14898
Z	-14899
【	-14900
凹	-14901
埔	-14902
崭	-14903
磕	-14904
赃	-14905
吱	-14906
嘎	-14907
灼	-14908
畴	-14909
盏	-14910
祟	-14911
芦	-14912
蹭	-14913
颊	-14914
圭	-14915
寇	-14916
沐	-14917
逍	-14918
陨	-14919
骼	-14920
魄	-14921
冕	-14922
奠	-14923
涩	-14924
疟	-14925
瞩	-14926
郑	-14927
】	-14928
姜	-14929
毅	-14930
灿	-14931
痹	-14932
砰	-14933
诵	-14934
鱿	-14935
鹦	-14936
怯	-14937
盎	-14938
镶	-14939
鹉	-14940
咕	-14941
彗	-14942
彬	-14943
扒	-14944
渍	-14945
滔	-14946
陡	-14947
瘀	-14948
茱	-14949
辰	-14950
辽	-14951
#	-14952
姊	-14953
岳	-14954
撬	-14955
毗	-14956
汪	-14957
畔	-14958
褪	-14959
骇	-14960
廓	-14961
矫	-14962
吕	-14963
孢	-14964
揪	-14965
枢	-14966
淤	-14967
睐	-14968
睫	-14969
瞥	-14970
籽	-14971
@	-14972
拧	-14973
挛	-14974
炖	-14975
缪	-14976
蘑	-14977
侏	-14978
枉	-14979
漱	-14980
瑕	-14981
窘	-14982
蚕	-14983
锥	-14984
闸	-14985
孝	-14986
斋	-14987
杭	-14988
锚	-14989
俭	-14990
唷	-14991
孵	-14992
怡	-14993
淑	-14994
疡	-14995
篱	-14996
羚	-14997
脐	-14998
芥	-14999
赵	-15000
醺	-15001
嘟	-15002
姥	-15003
崎	-15004
徵	-15005
痉	-15006
脓	-15007
妳	-15008
扛	-15009
痘	-15010
虱	-15011
蜥	-15012
娩	-15013
寝	-15014
悖	-15015
撮	-15016
绣	-15017
虏	-15018
贮	-15019
拣	-15020
暇	-15021
暮	-15022
淆	-15023
灶	-15024
炬	-15025
煞	-15026
眷	-15027
舵	-15028
莽	-15029
蔡	-15030
诠	-15031
躬	-15032
啃	-15033
姚	-15034
峭	-15035
惶	-15036
攒	-15037
桨	-15038
殷	-15039
玄	-15040
羔	-15041
膳	-15042
茬	-15043
钳	-15044
靡	-15045
倚	-15046
幺	-15047
棱	-15048
氟	-15049
漩	-15050
玲	-15051
簧	-15052
萃	-15053
螂	-15054
讳	-15055
镀	-15056
闺	-15057
嗦	-15058
忡	-15059
惭	-15060
憋	-15061
昼	-15062
淌	-15063
窖	-15064
绎	-15065
羁	-15066
跋	-15067
Q	-15068
乒	-15069
咧	-15070
唆	-15071
妊	-15072
岌	-15073
弧	-15074
挟	-15075
溉	-15076
眩	-15077
苟	-15078
酚	-15079
雏	-15080
乍	-15081
厮	-15082
咆	-15083
涕	-15084
牡	-15085
狒	-15086
疵	-15087
瞰	-15088
秉	-15089
葵	-15090
诶	-15091
黯	-15092
乓	-15093
伎	-15094
匕	-15095
咄	-15096
涤	-15097
穹	-15098
仕	-15099
凄	-15100
凋	-15101
夭	-15102
嫂	-15103
揣	-15104
浙	-15105
玷	-15106
纾	-15107
茵	-15108
骰	-15109
吝	-15110
咻	-15111
唧	-15112
恍	-15113
毋	-15114
汹	-15115
稠	-15116
窜	-15117
腌	-15118
谭	-15119
跷	-15120
顷	-15121
鳍	-15122
鹤	-15123
娠	-15124
婶	-15125
扉	-15126
椭	-15127
槛	-15128
滕	-15129
碘	-15130
碾	-15131
磋	-15132
稼	-15133
绽	-15134
茸	-15135
蜗	-15136
靓	-15137
冗	-15138
悚	-15139
橇	-15140
缀	-15141
菠	-15142
嗒	-15143
嘻	-15144
妃	-15145
疱	-15146
矢	-15147
穗	-15148
荆	-15149
菅	-15150
菱	-15151
蹩	-15152
辫	-15153
阉	-15154
隘	-15155
丐	-15156
叽	-15157
喃	-15158
寥	-15159
恙	-15160
懊	-15161
揉	-15162
瘸	-15163
盹	-15164
窦	-15165
竿	-15166
筝	-15167
羹	-15168
蒋	-15169
蠕	-15170
镯	-15171
奄	-15172
宛	-15173
惺	-15174
拭	-15175
潭	-15176
甫	-15177
胱	-15178
酌	-15179
刨	-15180
哗	-15181
彦	-15182
怠	-15183
殡	-15184
痊	-15185
磺	-15186
纬	-15187
肇	-15188
蟑	-15189
厥	-15190
嚏	-15191
徙	-15192
晦	-15193
翩	-15194
蹊	-15195
俺	-15196
啼	-15197
嗝	-15198
惬	-15199
藐	-15200
蜴	-15201
讪	-15202
鳞	-15203
咀	-15204
捎	-15205
掰	-15206
渥	-15207
痰	-15208
睦	-15209
睿	-15210
瞅	-15211
腋	-15212
苷	-15213
鞍	-15214
颓	-15215
俏	-15216
吠	-15217
呦	-15218
呻	-15219
囤	-15220
姗	-15221
敛	-15222
菩	-15223
蝎	-15224
酥	-15225
嘞	-15226
噜	-15227
梢	-15228
氰	-15229
睬	-15230
缕	-15231
蔼	-15232
邸	-15233
鞠	-15234
來	-15235
呛	-15236
啬	-15237
媳	-15238
寐	-15239
搐	-15240
沌	-15241
沏	-15242
禧	-15243
芜	-15244
譬	-15245
谚	-15246
陕	-15247
×	-15248
愣	-15249
甥	-15250
笋	-15251
蔗	-15252
蛾	-15253
褶	-15254
跚	-15255
酝	-15256
鲑	-15257
坤	-15258
峙	-15259
捂	-15260
攸	-15261
榻	-15262
澜	-15263
炽	-15264
烙	-15265
烬	-15266
猖	-15267
瞻	-15268
篝	-15269
簇	-15270
袒	-15271
锌	-15272
[	-15273
匮	-15274
叁	-15275
嗷	-15276
嚎	-15277
屯	-15278
帚	-15279
憩	-15280
掳	-15281
搂	-15282
摒	-15283
涎	-15284
焉	-15285
珥	-15286
缄	-15287
罹	-15288
萦	-15289
蹒	-15290
轧	-15291
]	-15292
侨	-15293
厩	-15294
哒	-15295
嘶	-15296
慑	-15297
拴	-15298
晾	-15299
栈	-15300
浊	-15301
瑙	-15302
瞌	-15303
禄	-15304
笆	-15305
蛤	-15306
醛	-15307
侃	-15308
墩	-15309
婿	-15310
殆	-15311
汲	-15312
炙	-15313
胫	-15314
茧	-15315
薛	-15316
蛎	-15317
赘	-15318
赡	-15319
跻	-15320
轩	-15321
遛	-15322
骷	-15323
髅	-15324
伶	-15325
侥	-15326
傀	-15327
儡	-15328
呱	-15329
坍	-15330
坨	-15331
巅	-15332
帷	-15333
弛	-15334
拂	-15335
枫	-15336
柿	-15337
涸	-15338
潢	-15339
疙	-15340
瘩	-15341
睽	-15342
砾	-15343
绚	-15344
腮	-15345
舷	-15346
诋	-15347
锂	-15348
倔	-15349
匣	-15350
喱	-15351
喳	-15352
抒	-15353
撩	-15354
桔	-15355
檀	-15356
殃	-15357
湛	-15358
潦	-15359
焙	-15360
铬	-15361
=	-15362
亟	-15363
孚	-15364
擒	-15365
汞	-15366
浣	-15367
潇	-15368
牟	-15369
皿	-15370
絮	-15371
萤	-15372
螃	-15373
邱	-15374
霞	-15375
鳗	-15376
冉	-15377
囱	-15378
嫖	-15379
弘	-15380
怂	-15381
栩	-15382
檐	-15383
烊	-15384
窑	-15385
篡	-15386
蟾	-15387
踹	-15388
霆	-15389
馏	-15390
剁	-15391
壕	-15392
彪	-15393
曙	-15394
眺	-15395
禀	-15396
笃	-15397
粟	-15398
肽	-15399
腓	-15400
蜚	-15401
跛	-15402
铛	-15403
阪	-15404
媲	-15405
撂	-15406
暧	-15407
曰	-15408
歼	-15409
洼	-15410
灸	-15411
猥	-15412
獗	-15413
簸	-15414
缎	-15415
蚤	-15416
豌	-15417
镳	-15418
阑	-15419
啄	-15420
啪	-15421
啮	-15422
尹	-15423
忿	-15424
拮	-15425
斟	-15426
朔	-15427
眶	-15428
矣	-15429
臆	-15430
臼	-15431
迂	-15432
邋	-15433
驭	-15434
兢	-15435
冶	-15436
唑	-15437
幌	-15438
惚	-15439
惦	-15440
拎	-15441
昵	-15442
枣	-15443
沧	-15444
甭	-15445
眸	-15446
砌	-15447
芮	-15448
蒲	-15449
蜒	-15450
蜿	-15451
袱	-15452
诲	-15453
谛	-15454
踵	-15455
酰	-15456
钛	-15457
颌	-15458
颞	-15459
驹	-15460
鼾	-15461
俾	-15462
們	-15463
卉	-15464
卤	-15465
呣	-15466
垢	-15467
憬	-15468
汐	-15469
汶	-15470
渲	-15471
澈	-15472
瘪	-15473
瞳	-15474
筏	-15475
箫	-15476
羟	-15477
腑	-15478
薰	-15479
蜷	-15480
讣	-15481
蹂	-15482
躏	-15483
辍	-15484
颐	-15485
饺	-15486
馁	-15487
叼	-15488
咔	-15489
咩	-15490
嘈	-15491
垦	-15492
忒	-15493
恺	-15494
憧	-15495
戛	-15496
暨	-15497
朦	-15498
柑	-15499
筷	-15500
纫	-15501
罂	-15502
胧	-15503
苑	-15504
貂	-15505
迥	-15506
鸥	-15507
侬	-15508
冀	-15509
孰	-15510
殉	-15511
氦	-15512
筐	-15513
芸	-15514
芹	-15515
莺	-15516
蔚	-15517
蚱	-15518
讥	-15519
诬	-15520
遢	-15521
雹	-15522
靖	-15523
鞘	-15524
颚	-15525
倪	-15526
咏	-15527
咫	-15528
恿	-15529
攘	-15530
攫	-15531
枷	-15532
桅	-15533
沥	-15534
湘	-15535
犸	-15536
矗	-15537
祀	-15538
荟	-15539
蜍	-15540
蜕	-15541
邑	-15542
酊	-15543
锢	-15544
镍	-15545
雁	-15546
鸵	-15547
佼	-15548
吭	-15549
坷	-15550
娄	-15551
娴	-15552
婷	-15553
嬷	-15554
孪	-15555
忱	-15556
榔	-15557
沓	-15558
炊	-15559
烃	-15560
磐	-15561
秆	-15562
翡	-15563
芋	-15564
藩	-15565
蛀	-15566
蝗	-15567
蟀	-15568
袁	-15569
褒	-15570
赝	-15571
蹬	-15572
辗	-15573
這	-15574
铎	-15575
鸠	-15576
鼬	-15577
哔	-15578
喵	-15579
恪	-15580
惋	-15581
抠	-15582
挝	-15583
擂	-15584
枭	-15585
瀚	-15586
珈	-15587
砷	-15588
竣	-15589
缭	-15590
苞	-15591
莞	-15592
萍	-15593
蕨	-15594
蘸	-15595
蛆	-15596
蟋	-15597
辘	-15598
钵	-15599
霹	-15600
鹏	-15601
麋	-15602
亢	-15603
俑	-15604
匡	-15605
喙	-15606
嗤	-15607
娼	-15608
孜	-15609
屌	-15610
恃	-15611
捶	-15612
旭	-15613
楔	-15614
氪	-15615
泞	-15616
涝	-15617
痣	-15618
祉	-15619
脯	-15620
藓	-15621
蟒	-15622
逅	-15623
邂	-15624
醚	-15625
釜	-15626
钚	-15627
镰	-15628
雳	-15629
霓	-15630
鲤	-15631
～	-15632
仨	-15633
個	-15634
剽	-15635
匍	-15636
匐	-15637
吏	-15638
嘣	-15639
恬	-15640
戎	-15641
搓	-15642
撵	-15643
淮	-15644
澎	-15645
猝	-15646
獭	-15647
痞	-15648
秤	-15649
粤	-15650
褥	-15651
诧	-15652
鄂	-15653
铵	-15654
阂	-15655
髋	-15656
魇	-15657
俐	-15658
剿	-15659
哝	-15660
啧	-15661
奕	-15662
媛	-15663
屹	-15664
搔	-15665
槌	-15666
汝	-15667
犁	-15668
犊	-15669
瓢	-15670
翱	-15671
耦	-15672
荼	-15673
萼	-15674
葫	-15675
裆	-15676
裴	-15677
霾	-15678
骡	-15679
咚	-15680
埠	-15681
峨	-15682
帧	-15683
搪	-15684
曳	-15685
楠	-15686
湮	-15687
甄	-15688
疝	-15689
疣	-15690
瘠	-15691
盥	-15692
眈	-15693
眯	-15694
矜	-15695
袤	-15696
蹋	-15697
霄	-15698
鹫	-15699
龊	-15700
龌	-15701
_	-15702
偎	-15703
刁	-15704
噎	-15705
岖	-15706
巍	-15707
幔	-15708
懵	-15709
戟	-15710
摹	-15711
楷	-15712
渝	-15713
狈	-15714
睑	-15715
肛	-15716
腱	-15717
苇	-15718
茉	-15719
蛊	-15720
襟	-15721
诃	-15722
谘	-15723
谧	-15724
锭	-15725
阎	-15726
骏	-15727
鳟	-15728
鹭	-15729
鼹	-15730
凛	-15731
吮	-15732
哉	-15733
啜	-15734
啾	-15735
嘀	-15736
妍	-15737
妾	-15738
孬	-15739
怦	-15740
憔	-15741
扪	-15742
斌	-15743
杞	-15744
柚	-15745
桦	-15746
涮	-15747
漓	-15748
熠	-15749
牒	-15750
皈	-15751
秸	-15752
箍	-15753
篓	-15754
缇	-15755
艮	-15756
蕊	-15757
蛭	-15758
觊	-15759
觎	-15760
诙	-15761
赊	-15762
铤	-15763
鳕	-15764
鹊	-15765
麟	-15766
∮	-15767
〔	-15768
劾	-15769
噱	-15770
垩	-15771
壹	-15772
孀	-15773
悴	-15774
捱	-15775
掂	-15776
掖	-15777
沒	-15778
漾	-15779
绯	-15780
苜	-15781
茹	-15782
蓿	-15783
裘	-15784
谕	-15785
躇	-15786
轶	-15787
遐	-15788
酣	-15789
酩	-15790
镁	-15791
馊	-15792
龈	-15793
<	-15794
`	-15795
〕	-15796
亘	-15797
嗎	-15798
噗	-15799
夥	-15800
悸	-15801
摁	-15802
擘	-15803
斡	-15804
札	-15805
桐	-15806
榆	-15807
洙	-15808
潺	-15809
燔	-15810
琅	-15811
琉	-15812
町	-15813
疽	-15814
瘘	-15815
禾	-15816
箔	-15817
糜	-15818
纰	-15819
缛	-15820
耙	-15821
谙	-15822
豺	-15823
踌	-15824
迸	-15825
遁	-15826
釉	-15827
锄	-15828
雯	-15829
>	-15830
α	-15831
β	-15832
嗪	-15833
囔	-15834
堰	-15835
婢	-15836
寰	-15837
岑	-15838
摈	-15839
會	-15840
漉	-15841
炳	-15842
猕	-15843
琦	-15844
瓮	-15845
磊	-15846
籁	-15847
缰	-15848
茁	-15849
茴	-15850
虞	-15851
裨	-15852
裳	-15853
讷	-15854
诟	-15855
谟	-15856
阈	-15857
鲈	-15858
麝	-15859
麼	-15860
『	-15861
』	-15862
侪	-15863
俚	-15864
儆	-15865
壑	-15866
峦	-15867
惮	-15868
斓	-15869
暄	-15870
榷	-15871
涓	-15872
湍	-15873
牠	-15874
獾	-15875
癣	-15876
砝	-15877
粼	-15878
糗	-15879
缤	-15880
苣	-15881
荤	-15882
菁	-15883
蓉	-15884
讬	-15885
跄	-15886
踉	-15887
蹶	-15888
迩	-15889
邃	-15890
铂	-15891
锰	-15892
阜	-15893
麾	-15894
傧	-15895
刽	-15896
匝	-15897
啶	-15898
嚓	-15899
垛	-15900
垣	-15901
奚	-15902
姣	-15903
岬	-15904
弑	-15905
惘	-15906
昙	-15907
晖	-15908
梧	-15909
毡	-15910
涟	-15911
淳	-15912
溴	-15913
滓	-15914
珂	-15915
琥	-15916
痔	-15917
瞠	-15918
硼	-15919
祛	-15920
纶	-15921
绌	-15922
缮	-15923
罔	-15924
肱	-15925
胥	-15926
胭	-15927
莴	-15928
蜢	-15929
讧	-15930
跆	-15931
铉	-15932
锣	-15933
阮	-15934
隅	-15935
馀	-15936
兀	-15937
別	-15938
叩	-15939
嗣	-15940
廖	-15941
弩	-15942
彝	-15943
彷	-15944
恣	-15945
恸	-15946
憨	-15947
戾	-15948
拗	-15949
搀	-15950
搡	-15951
攥	-15952
敝	-15953
楣	-15954
槲	-15955
湃	-15956
為	-15957
琛	-15958
璜	-15959
痿	-15960
瘁	-15961
碉	-15962
窈	-15963
窕	-15964
笺	-15965
筵	-15966
膺	-15967
臃	-15968
臻	-15969
荚	-15970
蔻	-15971
藜	-15972
蚌	-15973
蚜	-15974
蜓	-15975
谩	-15976
踱	-15977
蹿	-15978
迢	-15979
郝	-15980
铰	-15981
锹	-15982
闩	-15983
隼	-15984
飕	-15985
鬣	-15986
鹃	-15987
鹑	-15988
鹜	-15989
é	-15990
佃	-15991
俨	-15992
匾	-15993
呒	-15994
呸	-15995
